{
  "version": "1.0",
  "truncation": null,
  "padding": null,
  "added_tokens": [
    {
      "id": 0,
      "content": "<s>",
      "single_word": false,
      "lstrip": false,
      "rstrip": false,
      "normalized": false,
      "special": true
    },
    {
      "id": 1,
      "content": "</s>",
      "single_word": false,
      "lstrip": false,
      "rstrip": false,
      "normalized": false,
      "special": true
    },
    {
      "id": 2,
      "content": "<pad>",
      "single_word": false,
      "lstrip": false,
      "rstrip": false,
      "normalized": false,
      "special": true
    },
    {
      "id": 3,
      "content": "<unk>",
      "single_word": false,
      "lstrip": false,
      "rstrip": false,
      "normalized": false,
      "special": true
    },
    {
      "id": 4,
      "content": "<mask>",
      "single_word": false,
      "lstrip": false,
      "rstrip": false,
      "normalized": false,
      "special": true
    }
  ],
  "normalizer": null,
  "pre_tokenizer": {
    "type": "ByteLevel",
    "add_prefix_space": false,
    "trim_offsets": true,
    "use_regex": true
  },
  "post_processor": null,
  "decoder": {
    "type": "ByteLevel",
    "add_prefix_space": true,
    "trim_offsets": true,
    "use_regex": true
  },
  "model": {
    "type": "BPE",
    "dropout": null,
    "unk_token": null,
    "continuing_subword_prefix": null,
    "end_of_word_suffix": null,
    "fuse_unk": false,
    "byte_fallback": false,
    "ignore_merges": false,
    "vocab": {
      "<s>": 0,
      "</s>": 1,
      "<pad>": 2,
      "<unk>": 3,
      "<mask>": 4,
      "!": 5,
      "&": 6,
      "'": 7,
      "(": 8,
      ")": 9,
      "*": 10,
      ",": 11,
      "-": 12,
      ".": 13,
      "0": 14,
      "1": 15,
      "2": 16,
      "3": 17,
      "4": 18,
      "5": 19,
      "6": 20,
      "7": 21,
      "8": 22,
      "9": 23,
      ":": 24,
      ";": 25,
      ">": 26,
      "?": 27,
      "A": 28,
      "B": 29,
      "C": 30,
      "D": 31,
      "E": 32,
      "F": 33,
      "G": 34,
      "H": 35,
      "I": 36,
      "J": 37,
      "K": 38,
      "L": 39,
      "M": 40,
      "N": 41,
      "O": 42,
      "P": 43,
      "Q": 44,
      "R": 45,
      "S": 46,
      "T": 47,
      "U": 48,
      "V": 49,
      "W": 50,
      "X": 51,
      "Y": 52,
      "Z": 53,
      "[": 54,
      "]": 55,
      "a": 56,
      "b": 57,
      "c": 58,
      "d": 59,
      "e": 60,
      "f": 61,
      "g": 62,
      "h": 63,
      "i": 64,
      "j": 65,
      "k": 66,
      "l": 67,
      "m": 68,
      "n": 69,
      "o": 70,
      "p": 71,
      "q": 72,
      "r": 73,
      "s": 74,
      "t": 75,
      "u": 76,
      "v": 77,
      "w": 78,
      "x": 79,
      "y": 80,
      "z": 81,
      "Ċ": 82,
      "č": 83,
      "Ġ": 84,
      "ĠĠ": 85,
      "ĠĠĠĠ": 86,
      "čĊ": 87,
      "th": 88,
      "Ġth": 89,
      "ĠĠĠĠĠĠĠĠ": 90,
      "Ġa": 91,
      "in": 92,
      "Ġs": 93,
      "er": 94,
      "nd": 95,
      "Ġw": 96,
      "Ġthe": 97,
      "Ġh": 98,
      "Ġo": 99,
      "re": 100,
      "ou": 101,
      "Ġm": 102,
      "is": 103,
      "Ġf": 104,
      "Ġb": 105,
      "Ġt": 106,
      "es": 107,
      "on": 108,
      "or": 109,
      "at": 110,
      "ll": 111,
      "en": 112,
      "Ġd": 113,
      "ea": 114,
      "ĠĠĠĠĠĠĠĠĠĠĠĠĠĠĠĠ": 115,
      "Ġc": 116,
      "Ġand": 117,
      "Ġl": 118,
      "Ġof": 119,
      "Ġp": 120,
      "Ġn": 121,
      "st": 122,
      "ing": 123,
      "Ġto": 124,
      "--": 125,
      "an": 126,
      "Ġin": 127,
      "Th": 128,
      "ow": 129,
      "ed": 130,
      "om": 131,
      "it": 132,
      "'d": 133,
      "gh": 134,
      "ar": 135,
      "ith": 136,
      "Ġg": 137,
      "ir": 138,
      "ce": 139,
      "le": 140,
      "Ġwh": 141,
      "se": 142,
      "ĠĠĠ": 143,
      "ĠI": 144,
      "ve": 145,
      "And": 146,
      "ch": 147,
      "ot": 148,
      "et": 149,
      "Ġha": 150,
      "ra": 151,
      "ĠS": 152,
      "ut": 153,
      "ght": 154,
      "el": 155,
      "Ġwith": 156,
      "ri": 157,
      "Ġu": 158,
      "Ġsh": 159,
      "ear": 160,
      "----": 161,
      "ld": 162,
      "ere": 163,
      "am": 164,
      "od": 165,
      "Ġst": 166,
      "Ġre": 167,
      "Ġe": 168,
      "al": 169,
      "Ġbe": 170,
      "id": 171,
      "im": 172,
      "ly": 173,
      "ay": 174,
      "ur": 175,
      "Ġthat": 176,
      "Ġhis": 177,
      "Ġthy": 178,
      "ent": 179,
      "as": 180,
      "ver": 181,
      "ro": 182,
      "ion": 183,
      "ad": 184,
      "Ġmy": 185,
      "Ġon": 186,
      "Ġme": 187,
      "Ġnot": 188,
      "Ġy": 189,
      "ĠL": 190,
      "Wh": 191,
      "ill": 192,
      "Ġthou": 193,
      "est": 194,
      "The": 195,
      "il": 196,
      "ain": 197,
      "our": 198,
      "ĠP": 199,
      "Ġfor": 200,
      "ĠA": 201,
      "Ġ1": 202,
      "ight": 203,
      "ĠH": 204,
      "all": 205,
      "ĠM": 206,
      "Ġas": 207,
      "ore": 208,
      "ĠC": 209,
      "ĠĠĠĠĠĠĠĠĠĠĠĠĠĠĠĠĠĠĠĠĠĠĠĠ": 210,
      "Ġall": 211,
      "rom": 212,
      "To": 213,
      "ous": 214,
      "ess": 215,
      "ck": 216,
      "ĠG": 217,
      "Ġor": 218,
      "Ġis": 219,
      "ge": 220,
      "ee": 221,
      "ru": 222,
      "Ġv": 223,
      "ct": 224,
      "if": 225,
      "Ġso": 226,
      "ĠB": 227,
      "ers": 228,
      "us": 229,
      "Ġher": 230,
      "Ġsp": 231,
      "Ġthee": 232,
      "Ġit": 233,
      "rou": 234,
      "ord": 235,
      "--------": 236,
      "Ġsu": 237,
      "ast": 238,
      "Ġfrom": 239,
      "ĠĠĠĠĠĠĠĠĠĠĠĠĠĠĠĠĠĠĠĠ": 240,
      "Of": 241,
      "ĠT": 242,
      "ke": 243,
      "Ġthis": 244,
      "ell": 245,
      "ong": 246,
      "ĠF": 247,
      "res": 248,
      "nt": 249,
      "Ġat": 250,
      "Ġch": 251,
      "ie": 252,
      "ther": 253,
      "Ġby": 254,
      "em": 255,
      "ind": 256,
      "ine": 257,
      "ant": 258,
      "ould": 259,
      "Ġun": 260,
      "Ġhe": 261,
      "ood": 262,
      "Ġne": 263,
      "Ġno": 264,
      "'s": 265,
      "That": 266,
      "ist": 267,
      "ich": 268,
      "ose": 269,
      "ĠO": 270,
      "ph": 271,
      "ĠE": 272,
      "and": 273,
      "With": 274,
      "ble": 275,
      "ate": 276,
      "Ġtheir": 277,
      "Ġlo": 278,
      "pt": 279,
      "Ġhave": 280,
      "Ġhim": 281,
      "qu": 282,
      "Ġk": 283,
      "Ġcom": 284,
      "Ġli": 285,
      "Ġwas": 286,
      "Ġdo": 287,
      "ng": 288,
      "Ġbl": 289,
      "But": 290,
      "ol": 291,
      "Ġthem": 292,
      "ul": 293,
      "ĠD": 294,
      "Ġbut": 295,
      "ence": 296,
      "end": 297,
      "Ġcon": 298,
      "ic": 299,
      "ter": 300,
      "um": 301,
      "In": 302,
      "ise": 303,
      "ust": 304,
      "ĠW": 305,
      "Ġfa": 306,
      "Ġde": 307,
      "ĠGod": 308,
      "pp": 309,
      "ame": 310,
      "ies": 311,
      "ard": 312,
      "Ġthen": 313,
      "row": 314,
      "Ġthey": 315,
      "Ġpl": 316,
      "ort": 317,
      "eav": 318,
      "un": 319,
      "iv": 320,
      "old": 321,
      "ure": 322,
      "Ġshall": 323,
      "Ġwhat": 324,
      "ost": 325,
      "Ġj": 326,
      "Ġfl": 327,
      "Ġnow": 328,
      "Ġwho": 329,
      "Ġsom": 330,
      "ious": 331,
      "ĠN": 332,
      "ish": 333,
      "ĠR": 334,
      "Ġhear": 335,
      "ead": 336,
      "Ġup": 337,
      "os": 338,
      "Ġwill": 339,
      "Ġsa": 340,
      "Ġwhich": 341,
      "Ġan": 342,
      "Ġmore": 343,
      "ĠTh": 344,
      "au": 345,
      "Ġse": 346,
      "Ġour": 347,
      "op": 348,
      "ok": 349,
      "ring": 350,
      "ound": 351,
      "Or": 352,
      "igh": 353,
      "ile": 354,
      "ull": 355,
      "Ġthir": 356,
      "ation": 357,
      "Ġare": 358,
      "orn": 359,
      "ĠĠĠĠĠĠĠĠĠĠĠĠĠĠĠĠĠĠĠĠĠĠĠĠĠĠĠĠ": 360,
      "Ġgl": 361,
      "Ġstre": 362,
      "ĠLord": 363,
      "Ġwor": 364,
      "Ġshe": 365,
      "Ġman": 366,
      "Ġus": 367,
      "now": 368,
      "Ġar": 369,
      "Ġmay": 370,
      "ity": 371,
      "Ġex": 372,
      "Ġyou": 373,
      "out": 374,
      "ire": 375,
      "Ġra": 376,
      "Ġif": 377,
      "Ġal": 378,
      "ig": 379,
      "Ġam": 380,
      "eas": 381,
      "Ġgre": 382,
      "Ġ10": 383,
      "'t": 384,
      "ick": 385,
      "----------------": 386,
      "ive": 387,
      "ran": 388,
      "Ġsw": 389,
      "Ġen": 390,
      "ĠAnd": 391,
      "Ġhad": 392,
      "Ġ16": 393,
      "ak": 394,
      "ath": 395,
      "are": 396,
      "oth": 397,
      "rin": 398,
      "Ġpro": 399,
      "ide": 400,
      "ond": 401,
      "ry": 402,
      "eep": 403,
      "ab": 404,
      "fore": 405,
      "ice": 406,
      "Ġhath": 407,
      "ted": 408,
      "ue": 409,
      "ns": 410,
      "Ġab": 411,
      "ings": 412,
      "Ġwhere": 413,
      "For": 414,
      "Ġsee": 415,
      "Ġcl": 416,
      "ake": 417,
      "Ġru": 418,
      "ount": 419,
      "Ġcan": 420,
      "Ġout": 421,
      "ect": 422,
      "oy": 423,
      "ud": 424,
      "ĠJ": 425,
      "Ġear": 426,
      "ert": 427,
      "Ġever": 428,
      "Ġyet": 429,
      "20": 430,
      "ff": 431,
      "gain": 432,
      "ĠV": 433,
      "Ġri": 434,
      "Ġyour": 435,
      "ag": 436,
      "Ġdis": 437,
      "ĠĠĠĠĠĠĠĠĠĠĠĠĠĠĠĠĠĠĠĠĠĠĠĠĠĠĠĠĠĠĠĠ": 438,
      "rough": 439,
      "Ġhigh": 440,
      "As": 441,
      "ove": 442,
      "ves": 443,
      "Ġthere": 444,
      "nder": 445,
      "Ġper": 446,
      "ark": 447,
      "elf": 448,
      "pl": 449,
      "ts": 450,
      "wn": 451,
      "ass": 452,
      "uch": 453,
      "Ġfo": 454,
      "ĠHeav": 455,
      "Ġsuch": 456,
      "ac": 457,
      "age": 458,
      "Ġdid": 459,
      "bl": 460,
      "Ġ*": 461,
      "Ġqu": 462,
      "Ġself": 463,
      "Ġwe": 464,
      "ons": 465,
      "Ġday": 466,
      "ance": 467,
      "Ġgood": 468,
      "Ġhand": 469,
      "Ġknow": 470,
      "ĠThe": 471,
      "ness": 472,
      "Ġthese": 473,
      "one": 474,
      "to": 475,
      "ap": 476,
      "he": 477,
      "ms": 478,
      "Ġim": 479,
      "Ġwould": 480,
      "Ġhow": 481,
      "Ġhere": 482,
      "Ġfir": 483,
      "Ġtru": 484,
      "Ġoff": 485,
      "cc": 486,
      "eld": 487,
      "30": 488,
      "eet": 489,
      "ngth": 490,
      "40": 491,
      "Sam": 492,
      "ft": 493,
      "Ġsl": 494,
      "Ġmight": 495,
      "ĠĠĠĠĠĠĠĠĠĠĠĠĠĠĠĠĠĠĠĠĠĠĠĠĠĠĠĠĠĠĠĠĠĠĠĠ": 496,
      "Ġwhen": 497,
      "ĠĠĠĠĠĠĠĠĠĠĠĠĠĠĠĠĠĠĠĠĠĠĠĠĠ": 498,
      "Ġstrength": 499,
      "Ġgreat": 500,
      "Ġver": 501,
      "Ġown": 502,
      "eath": 503,
      "ite": 504,
      "sel": 505,
      "Ġhast": 506,
      "ilt": 507,
      "ian": 508,
      "oul": 509,
      "ime": 510,
      "urn": 511,
      "Ġlike": 512,
      "ree": 513,
      "Ġlong": 514,
      "ears": 515,
      "ife": 516,
      "II": 517,
      "ful": 518,
      "ks": 519,
      "Ġthrough": 520,
      "Ġother": 521,
      "Ġmen": 522,
      "own": 523,
      "ower": 524,
      "Where": 525,
      "ĠCh": 526,
      "50": 527,
      "ON": 528,
      "ace": 529,
      "de": 530,
      "Ġ(": 531,
      "Ġwere": 532,
      "art": 533,
      "Ġye": 534,
      "What": 535,
      "round": 536,
      "Ch": 537,
      "ild": 538,
      "Ġway": 539,
      "Ġpra": 540,
      "ade": 541,
      "ress": 542,
      "able": 543,
      "ip": 544,
      "ment": 545,
      "ne": 546,
      "sh": 547,
      "Ġad": 548,
      "Ġsc": 549,
      "its": 550,
      "'re": 551,
      "Yet": 552,
      "ward": 553,
      "Ġro": 554,
      "Ġser": 555,
      "Ġbre": 556,
      "Thou": 557,
      "ely": 558,
      "Not": 559,
      "aw": 560,
      "ave": 561,
      "Ġthose": 562,
      "Ġdes": 563,
      "eal": 564,
      "Ġlet": 565,
      "ition": 566,
      "Ġ6": 567,
      "Ġwell": 568,
      "red": 569,
      "Who": 570,
      "Ġfirst": 571,
      "From": 572,
      "Ġset": 573,
      "Ġold": 574,
      "Ġdel": 575,
      "east": 576,
      "Ġlight": 577,
      "Ġgra": 578,
      "Ġshould": 579,
      "Ġey": 580,
      "Ġone": 581,
      "Ġsome": 582,
      "10": 583,
      "70": 584,
      "My": 585,
      "ack": 586,
      "Ġword": 587,
      "Ġhon": 588,
      "Ġmust": 589,
      "Ġmost": 590,
      "Ġdark": 591,
      "Ġnight": 592,
      "Ġthought": 593,
      "Ġfair": 594,
      "He": 595,
      "His": 596,
      "az": 597,
      "ep": 598,
      "xt": 599,
      "ĠĠĠĠĠĠĠ": 600,
      "oud": 601,
      "Ġbest": 602,
      "llow": 603,
      "Ġpre": 604,
      "Which": 605,
      "80": 606,
      "So": 607,
      "ail": 608,
      "li": 609,
      "less": 610,
      "son": 611,
      "Ġagain": 612,
      "read": 613,
      "eak": 614,
      "Then": 615,
      "ĠSt": 616,
      "Ġdoth": 617,
      "ause": 618,
      "By": 619,
      "ber": 620,
      "ock": 621,
      "Ġsm": 622,
      "ome": 623,
      "Ġend": 624,
      "gin": 625,
      "Ġhead": 626,
      "ens": 627,
      "ean": 628,
      "Ġlast": 629,
      "Ġoft": 630,
      "Ġbefore": 631,
      "Ġonce": 632,
      "Ġupon": 633,
      "ign": 634,
      "90": 635,
      "full": 636,
      "of": 637,
      "Ġapp": 638,
      "Ġtw": 639,
      "Ġtri": 640,
      "ang": 641,
      "Ġwhile": 642,
      "Ġstill": 643,
      "Ġnever": 644,
      "Ġart": 645,
      "les": 646,
      "ov": 647,
      "per": 648,
      "Ġover": 649,
      "eace": 650,
      "Ġcall": 651,
      "Ġev": 652,
      "ĠĠĠĠĠĠĠĠĠĠĠĠĠĠĠĠĠĠĠĠĠ": 653,
      "ortal": 654,
      "Ġsec": 655,
      "Ġglor": 656,
      "Chor": 657,
      "iver": 658,
      "ss": 659,
      "ĠK": 660,
      "Ġ20": 661,
      "Ġmuch": 662,
      "iss": 663,
      "Ġfound": 664,
      "Ġlife": 665,
      "itt": 666,
      "Ġgu": 667,
      "right": 668,
      "riend": 669,
      "Ġunder": 670,
      "Ġrem": 671,
      "When": 672,
      "ains": 673,
      "Ġcont": 674,
      "On": 675,
      "ier": 676,
      "erd": 677,
      "Ġpower": 678,
      "anc": 679,
      "Ġinto": 680,
      "eds": 681,
      "ĠIn": 682,
      "Ġrep": 683,
      "ĠĠĠĠĠĠĠĠĠĠĠĠĠĠĠĠĠĠĠĠĠĠĠĠĠĠ": 684,
      "ĠĠĠĠĠĠĠĠĠĠĠĠĠĠĠĠĠĠĠĠĠĠĠ": 685,
      "ale": 686,
      "cri": 687,
      "ec": 688,
      "ron": 689,
      "ym": 690,
      "Ġea": 691,
      "ĠTo": 692,
      "Ġsing": 693,
      "ern": 694,
      "Ġwithout": 695,
      "Ġres": 696,
      "Ġthough": 697,
      "Ġlove": 698,
      "Ġjust": 699,
      "aught": 700,
      "Ġhonour": 701,
      "av": 702,
      "fter": 703,
      "ook": 704,
      "Ġboth": 705,
      "Ġpo": 706,
      "Ġpres": 707,
      "Ġread": 708,
      "ĠPh": 709,
      "ĠAr": 710,
      "ĠĠĠĠĠĠĠĠĠĠĠĠĠĠĠĠĠĠĠĠĠĠĠĠĠĠĠ": 711,
      "Ġsweet": 712,
      "Ġ&": 713,
      "Ġfe": 714,
      "Ġle": 715,
      "Ġnor": 716,
      "This": 717,
      "Ġrest": 718,
      "ours": 719,
      "ĠBro": 720,
      "ris": 721,
      "Ġ2": 722,
      "Ġfind": 723,
      "Ġdeath": 724,
      "Ġdown": 725,
      "Ġgive": 726,
      "Ġwhom": 727,
      "Ġspell": 728,
      "ĠĠĠĠĠĠĠĠĠĠĠĠĠĠĠĠĠĠĠĠĠĠ": 729,
      "Ġcomm": 730,
      "cl": 731,
      "fe": 732,
      "ield": 733,
      "ple": 734,
      "Ġed": 735,
      "ines": 736,
      "Ġho": 737,
      "Ġmis": 738,
      "Ġbring": 739,
      "Ġtime": 740,
      "ute": 741,
      "rought": 742,
      "Ġkeep": 743,
      "Ġcome": 744,
      "rown": 745,
      "HE": 746,
      "How": 747,
      "Man": 748,
      "aid": 749,
      "be": 750,
      "ia": 751,
      "ial": 752,
      "oice": 753,
      "rong": 754,
      "Ġmade": 755,
      "Ġbet": 756,
      "arm": 757,
      "rag": 758,
      "ĠSon": 759,
      "ĠSam": 760,
      "aint": 761,
      "Ġatt": 762,
      "Ġnew": 763,
      "ope": 764,
      "rans": 765,
      "Be": 766,
      "wh": 767,
      "Ġround": 768,
      "Ġmind": 769,
      "Ġfar": 770,
      "Ġbro": 771,
      "Ġcould": 772,
      "Ġgo": 773,
      "ady": 774,
      "Ġass": 775,
      "ction": 776,
      "Ġsoon": 777,
      "ĠFa": 778,
      "Ġlive": 779,
      "ĠSamson": 780,
      "If": 781,
      "use": 782,
      "int": 783,
      "Ġsin": 784,
      "ough": 785,
      "Ġpart": 786,
      "Ġpeace": 787,
      "Ġname": 788,
      "Thy": 789,
      "ray": 790,
      "ĠShe": 791,
      "Ġret": 792,
      "empt": 793,
      "Ġplace": 794,
      "self": 795,
      "Ġwords": 796,
      "Sh": 797,
      "bs": 798,
      "fer": 799,
      "Ġ4": 800,
      "ins": 801,
      "Ġmake": 802,
      "Ġfull": 803,
      "Ġfree": 804,
      "Ġtra": 805,
      "Ġdiv": 806,
      "Ġpur": 807,
      "Ġpass": 808,
      "Ġtoo": 809,
      "Ġgod": 810,
      "ĠSp": 811,
      "alt": 812,
      "ĠBut": 813,
      "Ġjoy": 814,
      "Ġmany": 815,
      "Ġimp": 816,
      "Ġeach": 817,
      "Sp": 818,
      "ef": 819,
      "ning": 820,
      "oc": 821,
      "Ġent": 822,
      "Ġsay": 823,
      "Ġsight": 824,
      "ated": 825,
      "ease": 826,
      "Ġlow": 827,
      "ĠIs": 828,
      "ets": 829,
      "els": 830,
      "Ġbeen": 831,
      "Ġonly": 832,
      "ĠAm": 833,
      "pherd": 834,
      "Ġearth": 835,
      "Ġright": 836,
      "ĠPhil": 837,
      "ĠShepherd": 838,
      "At": 839,
      "Qu": 840,
      "Un": 841,
      "gg": 842,
      "ject": 843,
      "led": 844,
      "ures": 845,
      "Ġr": 846,
      "the": 847,
      "Ġaff": 848,
      "ink": 849,
      "Ġfear": 850,
      "eng": 851,
      "ows": 852,
      "ars": 853,
      "ither": 854,
      "lem": 855,
      "ĠSh": 856,
      "ĠSun": 857,
      "Ġheard": 858,
      "Ġevery": 859,
      "Ġagainst": 860,
      "cript": 861,
      "60": 862,
      "73": 863,
      "Nor": 864,
      "for": 865,
      "other": 866,
      "Ġ30": 867,
      "Ġ40": 868,
      "thing": 869,
      "Ġacc": 870,
      "Ġsil": 871,
      "Ġwa": 872,
      "Ġwind": 873,
      "Ġhu": 874,
      "Ġmortal": 875,
      "Ġfriend": 876,
      "Ġbright": 877,
      "atch": 878,
      "Ġdou": 879,
      "Ġless": 880,
      "Ġpe": 881,
      "Ġprin": 882,
      "Ġint": 883,
      "irth": 884,
      "Ġwhose": 885,
      "Ġrev": 886,
      "Ġbeh": 887,
      "imes": 888,
      "ift": 889,
      "oss": 890,
      "Ġserv": 891,
      "Ġedition": 892,
      "No": 893,
      "XX": 894,
      "ily": 895,
      "nes": 896,
      "Ġ5": 897,
      "Ġ8": 898,
      "Ġ9": 899,
      "ĠOf": 900,
      "Ġage": 901,
      "Ġsoul": 902,
      "Ġhum": 903,
      "Ġheav": 904,
      "oun": 905,
      "Ġfal": 906,
      "Ġdi": 907,
      "Ġdeep": 908,
      "Ġcount": 909,
      "Ġpri": 910,
      "ĠPo": 911,
      "nto": 912,
      "Ġlook": 913,
      "ĠWood": 914,
      "ĠThy": 915,
      "Ġvert": 916,
      "Ġpraise": 917,
      "Ġeyes": 918,
      "lemn": 919,
      "SA": 920,
      "Till": 921,
      "ces": 922,
      "ike": 923,
      "me": 924,
      "not": 925,
      "ving": 926,
      "Ġ3": 927,
      "Ġ7": 928,
      "Ġaw": 929,
      "Ġsor": 930,
      "Ġsur": 931,
      "ouse": 932,
      "ouch": 933,
      "Ġfall": 934,
      "Ġtill": 935,
      "Ġcare": 936,
      "irgin": 937,
      "rid": 938,
      "Ġem": 939,
      "ions": 940,
      "ĠLady": 941,
      "ĠHer": 942,
      "ĠMan": 943,
      "Ġvis": 944,
      "ĠFor": 945,
      "Ġneed": 946,
      "Ġcons": 947,
      "ĠĠĠĠĠĠĠĠĠĠĠĠĠĠĠĠĠĠĠĠĠĠĠĠĠĠĠĠĠ": 948,
      "ĠLords": 949,
      "Ġwork": 950,
      "--------------------------------": 951,
      "Ġ164": 952,
      "Ġtrue": 953,
      "ilton": 954,
      "ĠPhilist": 955,
      "All": 956,
      "Com": 957,
      "ES": 958,
      "St": 959,
      "Such": 960,
      "den": 961,
      "ev": 962,
      "ience": 963,
      "ĠThat": 964,
      "ĠWith": 965,
      "Ġthus": 966,
      "Ġweak": 967,
      "reat": 968,
      "Ġmi": 969,
      "Ġmine": 970,
      "ont": 971,
      "Ġdra": 972,
      "Ġdear": 973,
      "Ġcame": 974,
      "Ġcause": 975,
      "ary": 976,
      "ĠSong": 977,
      "elt": 978,
      "alk": 979,
      "ĠPar": 980,
      "Ġconf": 981,
      "rows": 982,
      "ople": 983,
      "Ġ1673": 984,
      "akes": 985,
      "Ġabout": 986,
      "Ġseek": 987,
      "ertain": 988,
      "Ġhands": 989,
      "aps": 990,
      "ittle": 991,
      "ĠIsra": 992,
      "Had": 993,
      "air": 994,
      "ase": 995,
      "haps": 996,
      "mit": 997,
      "og": 998,
      "over": 999,
      "rous": 1000,
      "ubl": 1001,
      "Ġ'": 1002,
      "Ġere": 1003,
      "Ġ50": 1004,
      "Ġthings": 1005,
      "Ġafter": 1006,
      "Ġsad": 1007,
      "Ġwond": 1008,
      "Ġhold": 1009,
      "ret": 1010,
      "Ġbrought": 1011,
      "ory": 1012,
      "Ġdist": 1013,
      "Ġlea": 1014,
      "Ġinf": 1015,
      "There": 1016,
      "Ġmee": 1017,
      "While": 1018,
      "Ġforce": 1019,
      "ĠAl": 1020,
      "ĠMilton": 1021,
      "Ġvi": 1022,
      "Ġsolemn": 1023,
      "Ġsupp": 1024,
      "ief": 1025,
      "ĠEar": 1026,
      "Ġcomp": 1027,
      "Ġpleas": 1028,
      "Ġflow": 1029,
      "Ġany": 1030,
      "Ġstream": 1031,
      "Ġeye": 1032,
      "Ġspelling": 1033,
      "Ġgods": 1034,
      "Now": 1035,
      "bt": 1036,
      "eed": 1037,
      "ient": 1038,
      "ible": 1039,
      "ling": 1040,
      "oll": 1041,
      "so": 1042,
      "well": 1043,
      "erc": 1044,
      "Ġhope": 1045,
      "ren": 1046,
      "ense": 1047,
      "Ġdead": 1048,
      "ĠĠĠĠĠĠĠĠĠĠĠĠĠĠĠĠĠĠĠ": 1049,
      "Ġpers": 1050,
      "Ġpure": 1051,
      "Ġnat": 1052,
      "Ġgold": 1053,
      "ides": 1054,
      "ades": 1055,
      "Ġforth": 1056,
      "uscript": 1057,
      "ĠTHE": 1058,
      "ĠNation": 1059,
      "Ġheart": 1060,
      "ĠVirgin": 1061,
      "new": 1062,
      "Ġdelight": 1063,
      "Ġtwo": 1064,
      "ymph": 1065,
      "Ġleft": 1066,
      "ength": 1067,
      "Ġpeople": 1068,
      "SAL": 1069,
      "ĠIsrael": 1070,
      "She": 1071,
      "Was": 1072,
      "eb": 1073,
      "eh": 1074,
      "ub": 1075,
      "uous": 1076,
      "Ġill": 1077,
      "Ġsound": 1078,
      "Ġwar": 1079,
      "Ġwant": 1080,
      "rest": 1081,
      "Ġbes": 1082,
      "Ġbid": 1083,
      "att": 1084,
      "Ġlear": 1085,
      "Ġlittle": 1086,
      "Ġlength": 1087,
      "Ġpar": 1088,
      "Thir": 1089,
      "Ġgri": 1090,
      "Ġshame": 1091,
      "Ġstra": 1092,
      "Ġstate": 1093,
      "alm": 1094,
      "ĠLaw": 1095,
      "They": 1096,
      "ĠAs": 1097,
      "cks": 1098,
      "Ġvoice": 1099,
      "Ġche": 1100,
      "Ġchan": 1101,
      "Ġnothing": 1102,
      "ands": 1103,
      "Ġhimself": 1104,
      "Ġdef": 1105,
      "Ġjud": 1106,
      "ĠĠĠĠĠĠĠĠĠĠĠĠĠĠĠĠĠĠĠĠĠĠĠĠĠĠĠĠĠĠ": 1107,
      "Ġyouth": 1108,
      "Ġenem": 1109,
      "ĠĠĠĠĠĠĠĠĠĠĠĠĠĠĠĠĠĠĠĠĠĠĠĠĠĠĠĠĠĠĠĠĠĠ": 1110,
      "Ġfollow": 1111,
      "Though": 1112,
      "Ġ60": 1113,
      "PSAL": 1114,
      "com": 1115,
      "ix": 1116,
      "iz": 1117,
      "ied": 1118,
      "ls": 1119,
      "most": 1120,
      "pos": 1121,
      "ught": 1122,
      "with": 1123,
      "Ġi": 1124,
      "thers": 1125,
      "ĠĠĠĠĠĠĠĠĠĠĠĠ": 1126,
      "Ġang": 1127,
      "Ġsit": 1128,
      "Ġwom": 1129,
      "Ġwand": 1130,
      "Ġhel": 1131,
      "Ġhouse": 1132,
      "outh": 1133,
      "ought": 1134,
      "Ġtell": 1135,
      "Ġtears": 1136,
      "Ġtrans": 1137,
      "Ġda": 1138,
      "ĠĠĠĠĠĠĠĠĠĠĠĠĠĠĠĠĠĠĠĠĠĠĠĠĠĠĠĠĠĠĠĠĠĠĠĠĠĠĠĠ": 1139,
      "Ġcor": 1140,
      "Ġlay": 1141,
      "Ġloud": 1142,
      "Ġinter": 1143,
      "Ġgiv": 1144,
      "Ġground": 1145,
      "cept": 1146,
      "Ġhas": 1147,
      "Ġwithin": 1148,
      "Ġuse": 1149,
      "ament": 1150,
      "ĠPrin": 1151,
      "ĠAu": 1152,
      "ĠCam": 1153,
      "Ġvain": 1154,
      "Ġlies": 1155,
      "ult": 1156,
      "une": 1157,
      "Ġshew": 1158,
      "Ġamong": 1159,
      "Ġgreen": 1160,
      "------------------------": 1161,
      "III": 1162,
      "ilde": 1163,
      "Ġadv": 1164,
      "Ġserve": 1165,
      "Ġsmo": 1166,
      "Ġevil": 1167,
      "Ġglory": 1168,
      "Ġholy": 1169,
      "Ġdivine": 1170,
      "Ġfalse": 1171,
      "16": 1172,
      "Am": 1173,
      "Again": 1174,
      "Co": 1175,
      "Har": 1176,
      "ah": 1177,
      "ach": 1178,
      "ether": 1179,
      "ib": 1180,
      "ool": 1181,
      "ps": 1182,
      "pect": 1183,
      "uri": 1184,
      "Ġeas": 1185,
      "Ġthine": 1186,
      "Ġthink": 1187,
      "Ġside": 1188,
      "Ġwis": 1189,
      "Ġocc": 1190,
      "rew": 1191,
      "Ġmet": 1192,
      "Ġmorn": 1193,
      "Ġmean": 1194,
      "Ġfill": 1195,
      "Ġfore": 1196,
      "Ġfoul": 1197,
      "Ġbo": 1198,
      "Ġbea": 1199,
      "Ġbed": 1200,
      "ater": 1201,
      "atter": 1202,
      "ĠĠĠĠĠĠĠĠĠĠĠĠĠĠĠĠĠĠ": 1203,
      "Ġlead": 1204,
      "Ġlab": 1205,
      "ane": 1206,
      "ank": 1207,
      "Ġgave": 1208,
      "ceiv": 1209,
      "Ġhapp": 1210,
      "ĠSo": 1211,
      "ĠSw": 1212,
      "Whom": 1213,
      "ĠPri": 1214,
      "ĠPro": 1215,
      "ĠMus": 1216,
      "eem": 1217,
      "cted": 1218,
      "Ġspir": 1219,
      "Ġspeed": 1220,
      "Ġsub": 1221,
      "aste": 1222,
      "resh": 1223,
      "Ġchar": 1224,
      "Ġunc": 1225,
      "Ġlost": 1226,
      "Ġdost": 1227,
      "Ġblind": 1228,
      "Ġfav": 1229,
      "ĠThis": 1230,
      "Ġworth": 1231,
      "Ġworld": 1232,
      "Ġcloud": 1233,
      "Ġrun": 1234,
      "agon": 1235,
      "Ġperf": 1236,
      "Ġfoes": 1237,
      "aze": 1238,
      "ĠStar": 1239,
      "ocks": 1240,
      "Ġappear": 1241,
      "Ġglorious": 1242,
      "aughter": 1243,
      "Ġpresent": 1244,
      "Ġreads": 1245,
      "ĠEarth": 1246,
      "Ġchange": 1247,
      "Her": 1248,
      "IN": 1249,
      "It": 1250,
      "La": 1251,
      "OR": 1252,
      "Will": 1253,
      "apt": 1254,
      "cred": 1255,
      "ever": 1256,
      "iant": 1257,
      "mp": 1258,
      "oin": 1259,
      "oes": 1260,
      "wer": 1261,
      "Ġant": 1262,
      "Ġsk": 1263,
      "Ġsle": 1264,
      "erv": 1265,
      "Ġwr": 1266,
      "Ġwalk": 1267,
      "Ġhar": 1268,
      "Ġod": 1269,
      "rey": 1270,
      "Ġfre": 1271,
      "Ġfire": 1272,
      "Ġbow": 1273,
      "Ġbel": 1274,
      "ĠĠĠĠĠĠĠĠĠĠĠĠĠĠĠĠĠ": 1275,
      "Ġline": 1276,
      "Ġins": 1277,
      "arri": 1278,
      "Ġgent": 1279,
      "ott": 1280,
      "ames": 1281,
      "Ġstri": 1282,
      "ĠLy": 1283,
      "Their": 1284,
      "Ġforg": 1285,
      "ĠMo": 1286,
      "cts": 1287,
      "ems": 1288,
      "Ġdeeds": 1289,
      "Ġwhole": 1290,
      "Ġsave": 1291,
      "Ġalone": 1292,
      "Ġdidst": 1293,
      "Ġtruth": 1294,
      "Ġtrust": 1295,
      "ĠĠĠĠĠĠĠĠĠĠĠĠĠĠĠĠĠĠĠĠĠĠĠĠĠĠĠĠĠĠĠĠĠĠĠĠĠ": 1296,
      "ĠĠĠĠĠĠĠĠĠĠĠĠĠĠĠĠĠĠĠĠĠĠĠĠĠĠĠĠĠĠĠĠĠĠĠĠĠĠ": 1297,
      "Ġbreath": 1298,
      "ĠKing": 1299,
      "rison": 1300,
      "Ġ1645": 1301,
      "Ab": 1302,
      "EN": 1303,
      "ER": 1304,
      "app": 1305,
      "dol": 1306,
      "ex": 1307,
      "joy": 1308,
      "mer": 1309,
      "ned": 1310,
      "rat": 1311,
      "rod": 1312,
      "uc": 1313,
      "yr": 1314,
      "ĠWh": 1315,
      "Ġrou": 1316,
      "Ġsent": 1317,
      "ery": 1318,
      "Ġwise": 1319,
      "Ġwick": 1320,
      "Ġhard": 1321,
      "Ġop": 1322,
      "Ġbound": 1323,
      "Ġback": 1324,
      "Ġturn": 1325,
      "Ġtouch": 1326,
      "ors": 1327,
      "orous": 1328,
      "orious": 1329,
      "Ġdro": 1330,
      "Ġdwell": 1331,
      "Ġlist": 1332,
      "Ġput": 1333,
      "Ġnum": 1334,
      "chant": 1335,
      "ett": 1336,
      "ĠSons": 1337,
      "Ġshalt": 1338,
      "Ġstood": 1339,
      "Ġstep": 1340,
      "adise": 1341,
      "ĠLove": 1342,
      "Ġsoft": 1343,
      "roud": 1344,
      "Ġsure": 1345,
      "ĠTrag": 1346,
      "ĠFl": 1347,
      "Ġnoise": 1348,
      "ĠDagon": 1349,
      "ended": 1350,
      "ĠĠĠĠĠĠĠĠĠĠĠĠĠĠĠĠĠĠĠĠĠĠĠĠĠĠĠĠĠĠĠ": 1351,
      "Ġrather": 1352,
      "easure": 1353,
      "Ġabove": 1354,
      "Ġperhaps": 1355,
      "Ġimm": 1356,
      "ĠĠĠĠĠĠĠĠĠĠĠĠĠĠĠĠĠĠĠĠĠĠĠĠĠĠĠĠĠĠĠĠĠĠĠĠĠĠĠ": 1357,
      "Ġbreak": 1358,
      "Note": 1359,
      "Ġthoughts": 1360,
      "Ġbetter": 1361,
      "ĠCamb": 1362,
      "AT": 1363,
      "Like": 1364,
      "May": 1365,
      "act": 1366,
      "cid": 1367,
      "ey": 1368,
      "eous": 1369,
      "ext": 1370,
      "gu": 1371,
      "ges": 1372,
      "iest": 1373,
      "ixt": 1374,
      "oom": 1375,
      "ole": 1376,
      "rate": 1377,
      "sp": 1378,
      "swer": 1379,
      "ĠU": 1380,
      "Ġer": 1381,
      "Ġest": 1382,
      "Ġair": 1383,
      "Ġwra": 1384,
      "Ġwilt": 1385,
      "Ġheld": 1386,
      "Ġhome": 1387,
      "Ġmod": 1388,
      "Ġmid": 1389,
      "Ġfell": 1390,
      "Ġfeet": 1391,
      "Ġfier": 1392,
      "Ġbu": 1393,
      "Ġbold": 1394,
      "Ġtend": 1395,
      "ese": 1396,
      "Ġdest": 1397,
      "Ġdif": 1398,
      "ĠĠĠĠĠĠĠĠĠĠĠĠĠĠĠĠĠĠĠĠĠĠĠĠĠĠĠĠĠĠĠĠĠĠĠĠĠĠĠĠĠ": 1399,
      "Ġcour": 1400,
      "Ġcertain": 1401,
      "Ġlate": 1402,
      "Ġlaw": 1403,
      "Ġpast": 1404,
      "Ġposs": 1405,
      "Ġpubl": 1406,
      "Ġtook": 1407,
      "Ġtoward": 1408,
      "Ġind": 1409,
      "Ġinv": 1410,
      "Through": 1411,
      "owers": 1412,
      "edy": 1413,
      "ited": 1414,
      "ities": 1415,
      "itud": 1416,
      "Ġgro": 1417,
      "ĠIt": 1418,
      "ots": 1419,
      "ĠSoul": 1420,
      "Ġshades": 1421,
      "amp": 1422,
      "Ġstrong": 1423,
      "Ġrec": 1424,
      "Ġred": 1425,
      "Ġrel": 1426,
      "urs": 1427,
      "urst": 1428,
      "urns": 1429,
      "ask": 1430,
      "ĠLand": 1431,
      "ĠPl": 1432,
      "ĠAir": 1433,
      "Ġ13": 1434,
      "Ġspeak": 1435,
      "Ġsuff": 1436,
      "ĠTru": 1437,
      "Ġneer": 1438,
      "ĠOr": 1439,
      "Ġkind": 1440,
      "Ġknew": 1441,
      "Ġcomes": 1442,
      "Ġblood": 1443,
      "Ġconc": 1444,
      "Ġfaith": 1445,
      "Ġdev": 1446,
      "ĠGods": 1447,
      "ĠNymph": 1448,
      "ĠThou": 1449,
      "Ġseat": 1450,
      "Ġarm": 1451,
      "athers": 1452,
      "Ġseem": 1453,
      "Ġclose": 1454,
      "Ġcannot": 1455,
      "Ġquite": 1456,
      "Ġsecret": 1457,
      "ĠFather": 1458,
      "Spir": 1459,
      "form": 1460,
      "Ġbehold": 1461,
      "Ġsorrow": 1462,
      "Ġweakness": 1463,
      "Ġleave": 1464,
      "ehov": 1465,
      "Ġgrief": 1466,
      "Ġenemies": 1467,
      "Ġsmooth": 1468,
      "Against": 1469,
      "Ġfavour": 1470,
      "Ġwicked": 1471,
      "itude": 1472,
      "XV": 1473,
      "aph": 1474,
      "dom": 1475,
      "eg": 1476,
      "na": 1477,
      "oly": 1478,
      "rone": 1479,
      "uck": 1480,
      "vi": 1481,
      "vent": 1482,
      "Ġut": 1483,
      "Ġel": 1484,
      "Ġ70": 1485,
      "Ġ80": 1486,
      "Ġsense": 1487,
      "Ġwo": 1488,
      "Ġwon": 1489,
      "Ġhor": 1490,
      "Ġhide": 1491,
      "Ġharm": 1492,
      "Ġmea": 1493,
      "Ġfra": 1494,
      "Ġfur": 1495,
      "Ġbear": 1496,
      "Ġtu": 1497,
      "Ġtake": 1498,
      "Ġtimes": 1499,
      "ony": 1500,
      "Ġdue": 1501,
      "Ġdread": 1502,
      "Ġcast": 1503,
      "Ġled": 1504,
      "Ġleast": 1505,
      "Ġnear": 1506,
      "These": 1507,
      "irc": 1508,
      "irt": 1509,
      "ĠSc": 1510,
      "ĠSea": 1511,
      "Ġstay": 1512,
      "Ġstand": 1513,
      "Ġreas": 1514,
      "Ġbegin": 1515,
      "asion": 1516,
      "Ġ11": 1517,
      "Ġ14": 1518,
      "ĠHis": 1519,
      "ally": 1520,
      "ĠCon": 1521,
      "ĠCom": 1522,
      "Ġval": 1523,
      "ongue": 1524,
      "ĠFathers": 1525,
      "Ġchief": 1526,
      "Ġunf": 1527,
      "Ġbless": 1528,
      "Ġblack": 1529,
      "ĠWor": 1530,
      "Ġface": 1531,
      "Ġdec": 1532,
      "Ġthence": 1533,
      "ĠNo": 1534,
      "Ġsacred": 1535,
      "Ġanswer": 1536,
      "Ġseen": 1537,
      "Ġglad": 1538,
      "Ġalso": 1539,
      "ĠJove": 1540,
      "erty": 1541,
      "Ġrid": 1542,
      "Ġscorn": 1543,
      "Ġdeliver": 1544,
      "Ġgrave": 1545,
      "Ġattend": 1546,
      "Ġwinds": 1547,
      "Ġdoubt": 1548,
      "Ġvertue": 1549,
      "Ġdraw": 1550,
      "Ġgolden": 1551,
      "----------------------------": 1552,
      "Ġwrath": 1553,
      "ehovah": 1554,
      "Al": 1555,
      "IS": 1556,
      "Let": 1557,
      "Under": 1558,
      "aul": 1559,
      "bit": 1560,
      "bour": 1561,
      "pe": 1562,
      "rant": 1563,
      "under": 1564,
      "vail": 1565,
      "we": 1566,
      "Ġran": 1567,
      "ĠWhat": 1568,
      "ĠQu": 1569,
      "Ġthing": 1570,
      "Ġac": 1571,
      "Ġag": 1572,
      "Ġson": 1573,
      "Ġsist": 1574,
      "ering": 1575,
      "Ġwear": 1576,
      "Ġwish": 1577,
      "Ġwatch": 1578,
      "Ġhate": 1579,
      "Ġhence": 1580,
      "Ġmon": 1581,
      "Ġmus": 1582,
      "Ġfanc": 1583,
      "Ġfresh": 1584,
      "Ġbra": 1585,
      "Ġborn": 1586,
      "Ġbirth": 1587,
      "Ġter": 1588,
      "Ġtrou": 1589,
      "Ġtem": 1590,
      "Ġdon": 1591,
      "Ġdone": 1592,
      "Ġcu": 1593,
      "Ġcru": 1594,
      "Ġcry": 1595,
      "Ġcrown": 1596,
      "Ġproud": 1597,
      "Ġinn": 1598,
      "itle": 1599,
      "Ġgrow": 1600,
      "cend": 1601,
      "ceive": 1602,
      "ĠIdol": 1603,
      "Ġhallow": 1604,
      "amous": 1605,
      "Ġrequ": 1606,
      "Ġbeg": 1607,
      "vers": 1608,
      "Wher": 1609,
      "ĠAp": 1610,
      "ĠAng": 1611,
      "Ġ12": 1612,
      "Ġ15": 1613,
      "ĠMar": 1614,
      "Ġord": 1615,
      "Ġvow": 1616,
      "Ġvar": 1617,
      "ĠBy": 1618,
      "ording": 1619,
      "ĠTem": 1620,
      "ĠFeast": 1621,
      "Ġchoice": 1622,
      "Ġunw": 1623,
      "ĠOF": 1624,
      "Ġloss": 1625,
      "Ġbliss": 1626,
      "ĠDel": 1627,
      "Ġdew": 1628,
      "Ġplay": 1629,
      "Ġsaw": 1630,
      "Ġsaid": 1631,
      "Ġsafe": 1632,
      "ations": 1633,
      "Ġmanuscript": 1634,
      "Ġarms": 1635,
      "Ġext": 1636,
      "Ġyoung": 1637,
      "Ġalong": 1638,
      "Ġclear": 1639,
      "Ġrich": 1640,
      "ĠĠĠĠĠĠĠĠĠĠĠĠĠĠĠĠĠĠĠĠĠĠĠĠĠĠĠĠĠĠĠĠĠĠĠ": 1641,
      "Ġtherefore": 1642,
      "ples": 1643,
      "Ġfirm": 1644,
      "Ġpray": 1645,
      "Ġgrace": 1646,
      "Ġmiser": 1647,
      "Ġreturn": 1648,
      "ĠSpir": 1649,
      "Ġaffli": 1650,
      "Ġfriends": 1651,
      "ridge": 1652,
      "ĠParadise": 1653,
      "Ġhelp": 1654,
      "Ġoccasion": 1655,
      "Ġantient": 1656,
      "Ġgentle": 1657,
      "ĠLycid": 1658,
      "ĠMoon": 1659,
      "Ġelse": 1660,
      "An": 1661,
      "Are": 1662,
      "Eld": 1663,
      "God": 1664,
      "Here": 1665,
      "Hath": 1666,
      "IV": 1667,
      "Into": 1668,
      "Mess": 1669,
      "Que": 1670,
      "SON": 1671,
      "Would": 1672,
      "born": 1673,
      "cer": 1674,
      "eus": 1675,
      "fet": 1676,
      "lf": 1677,
      "mb": 1678,
      "man": 1679,
      "no": 1680,
      "ob": 1681,
      "po": 1682,
      "pon": 1683,
      "pose": 1684,
      "rs": 1685,
      "sand": 1686,
      "ual": 1687,
      "uish": 1688,
      "vy": 1689,
      "ĠY": 1690,
      "Ġ90": 1691,
      "ĠQue": 1692,
      "though": 1693,
      "Ġsi": 1694,
      "Ġsits": 1695,
      "erve": 1696,
      "Ġwing": 1697,
      "Ġwide": 1698,
      "Ġwings": 1699,
      "Ġhea": 1700,
      "Ġhid": 1701,
      "Ġhither": 1702,
      "Ġob": 1703,
      "ream": 1704,
      "oura": 1705,
      "Ġma": 1706,
      "Ġmo": 1707,
      "Ġmour": 1708,
      "Ġfit": 1709,
      "Ġfru": 1710,
      "Ġfast": 1711,
      "Ġfeast": 1712,
      "Ġfield": 1713,
      "Ġtre": 1714,
      "Ġdie": 1715,
      "Ġcond": 1716,
      "Ġlie": 1717,
      "Ġinc": 1718,
      "Ġinchant": 1719,
      "edge": 1720,
      "irst": 1721,
      "Ġwhy": 1722,
      "otion": 1723,
      "Ġhalf": 1724,
      "raph": 1725,
      "Ġstran": 1726,
      "idst": 1727,
      "idence": 1728,
      "ays": 1729,
      "ention": 1730,
      "Ġthousand": 1731,
      "aining": 1732,
      "ĠHe": 1733,
      "Ġask": 1734,
      "ĠCount": 1735,
      "ĠGra": 1736,
      "Ġvie": 1737,
      "ĠBe": 1738,
      "Ġspread": 1739,
      "Ġsung": 1740,
      "Ġunp": 1741,
      "Ġnext": 1742,
      "Ġnoble": 1743,
      "ĠOn": 1744,
      "ulous": 1745,
      "Ġconst": 1746,
      "ication": 1747,
      "Ġanother": 1748,
      "aunt": 1749,
      "Ġworse": 1750,
      "Ġexce": 1751,
      "Ġ100": 1752,
      "aking": 1753,
      "Ġprof": 1754,
      "ountain": 1755,
      "Ġknown": 1756,
      "ĠThey": 1757,
      "Ġsecond": 1758,
      "ĠKings": 1759,
      "Shall": 1760,
      "ĠShepherds": 1761,
      "Ġrise": 1762,
      "Ġhung": 1763,
      "Ġdouble": 1764,
      "Ġhuman": 1765,
      "------------------------------------------------------------": 1766,
      "ograph": 1767,
      "Ġviol": 1768,
      "ercy": 1769,
      "ize": 1770,
      "ĠĠĠĠĠĠĠĠĠĠĠĠĠĠ": 1771,
      "Among": 1772,
      "Ġlabour": 1773,
      "Ġsubject": 1774,
      "Ġsleep": 1775,
      "Ġimmortal": 1776,
      "ĠLycidas": 1777,
      "Ġview": 1778,
      "12": 1779,
      "53": 1780,
      "AN": 1781,
      "AR": 1782,
      "After": 1783,
      "Hast": 1784,
      "Is": 1785,
      "Tw": 1786,
      "by": 1787,
      "ded": 1788,
      "dden": 1789,
      "ele": 1790,
      "eve": 1791,
      "hood": 1792,
      "just": 1793,
      "ken": 1794,
      "nly": 1795,
      "oic": 1796,
      "ollow": 1797,
      "pit": 1798,
      "su": 1799,
      "som": 1800,
      "ues": 1801,
      "yl": 1802,
      "Ġ:": 1803,
      "Ġing": 1804,
      "Ġil": 1805,
      "ĠWhere": 1806,
      "Ġels": 1807,
      "thor": 1808,
      "Ġsate": 1809,
      "Ġsame": 1810,
      "Ġsens": 1811,
      "Ġwea": 1812,
      "Ġwel": 1813,
      "Ġwast": 1814,
      "Ġwilde": 1815,
      "Ġothers": 1816,
      "Ġmad": 1817,
      "Ġmark": 1818,
      "Ġmouth": 1819,
      "ises": 1820,
      "Ġfet": 1821,
      "Ġbr": 1822,
      "Ġben": 1823,
      "Ġtongue": 1824,
      "atis": 1825,
      "ates": 1826,
      "lly": 1827,
      "ene": 1828,
      "ener": 1829,
      "enly": 1830,
      "Ġdore": 1831,
      "Ġdire": 1832,
      "Ġla": 1833,
      "Ġpard": 1834,
      "Ġpale": 1835,
      "Ġpron": 1836,
      "anch": 1837,
      "anks": 1838,
      "Ġinde": 1839,
      "Ġinward": 1840,
      "Ġwhether": 1841,
      "chi": 1842,
      "eturn": 1843,
      "Ġhair": 1844,
      "ĠSire": 1845,
      "ĠSeas": 1846,
      "ution": 1847,
      "utograph": 1848,
      "ric": 1849,
      "Ġund": 1850,
      "Ġshort": 1851,
      "Ġreg": 1852,
      "als": 1853,
      "Ġbec": 1854,
      "Ġbend": 1855,
      "Ġbeing": 1856,
      "ident": 1857,
      "urb": 1858,
      "roph": 1859,
      "ĠLXX": 1860,
      "Whose": 1861,
      "ester": 1862,
      "iles": 1863,
      "ĠPeace": 1864,
      "Ġform": 1865,
      "Ġfort": 1866,
      "ĠAn": 1867,
      "ĠAt": 1868,
      "ĠHow": 1869,
      "ĠHar": 1870,
      "ĠMr": 1871,
      "ĠMy": 1872,
      "ĠMon": 1873,
      "ĠMuse": 1874,
      "ĠGl": 1875,
      "Ġvan": 1876,
      "ifts": 1877,
      "Ġsol": 1878,
      "Ġsudden": 1879,
      "Off": 1880,
      "ants": 1881,
      "isten": 1882,
      "ĠEng": 1883,
      "Ġlov": 1884,
      "Ġliqu": 1885,
      "ument": 1886,
      "umph": 1887,
      "ortun": 1888,
      "Ġflight": 1889,
      "Ġflood": 1890,
      "Ġflower": 1891,
      "ishon": 1892,
      "osom": 1893,
      "Ġsever": 1894,
      "Ġworst": 1895,
      "Ġexp": 1896,
      "Ġexam": 1897,
      "Ġprov": 1898,
      "ably": 1899,
      "ountains": 1900,
      "ĠJo": 1901,
      "Ġdispl": 1902,
      "Ġfoe": 1903,
      "Ġdays": 1904,
      "Ġknows": 1905,
      "Ġoffer": 1906,
      "Ġmighty": 1907,
      "Ġvery": 1908,
      "ealth": 1909,
      "Ġdarkness": 1910,
      "Ġdarknes": 1911,
      "Ġpret": 1912,
      "Ġprevent": 1913,
      "Ġsmall": 1914,
      "ivers": 1915,
      "Ġresol": 1916,
      "Ġpoint": 1917,
      "ĠArt": 1918,
      "Ġfew": 1919,
      "Ġcommon": 1920,
      "Ġcommand": 1921,
      "ĠFaith": 1922,
      "Ġcountrey": 1923,
      "ĠWoods": 1924,
      "ĠPhilistian": 1925,
      "Ġnature": 1926,
      "Ġjudge": 1927,
      "Ġwoman": 1928,
      "Ġcorre": 1929,
      "ĠPriest": 1930,
      "ĠMusick": 1931,
      "Ġperfect": 1932,
      "ĠTragedy": 1933,
      "ĠCambridge": 1934,
      "Ġtender": 1935,
      "Ġdiffer": 1936,
      "ĠTruth": 1937,
      "Ġsister": 1938,
      "ĠQueen": 1939,
      ".]": 1940,
      "14": 1941,
      "Dal": 1942,
      "IT": 1943,
      "ION": 1944,
      "More": 1945,
      "Our": 1946,
      "Per": 1947,
      "Sw": 1948,
      "Som": 1949,
      "We": 1950,
      "Were": 1951,
      "Your": 1952,
      "aff": 1953,
      "co": 1954,
      "eat": 1955,
      "ging": 1956,
      "iqu": 1957,
      "long": 1958,
      "ma": 1959,
      "nare": 1960,
      "oa": 1961,
      "oke": 1962,
      "sim": 1963,
      "sight": 1964,
      "up": 1965,
      "unt": 1966,
      "ven": 1967,
      "Ġ!": 1968,
      "Ġring": 1969,
      "Ġthick": 1970,
      "Ġwat": 1971,
      "Ġwee": 1972,
      "Ġwound": 1973,
      "Ġopp": 1974,
      "Ġobs": 1975,
      "Ġmed": 1976,
      "Ġmel": 1977,
      "Ġfly": 1978,
      "Ġbar": 1979,
      "Ġbur": 1980,
      "Ġbook": 1981,
      "Ġtim": 1982,
      "Ġtry": 1983,
      "Ġtaste": 1984,
      "Ġtext": 1985,
      "Ġtask": 1986,
      "oral": 1987,
      "orus": 1988,
      "atic": 1989,
      "Ġden": 1990,
      "Ġdim": 1991,
      "Ġdance": 1992,
      "Ġcri": 1993,
      "Ġcalm": 1994,
      "Ġlot": 1995,
      "Ġlest": 1996,
      "Ġland": 1997,
      "Ġlines": 1998,
      "Ġpen": 1999,
      "Ġtold": 2000,
      "Ġinst": 2001,
      "owr": 2002,
      "oward": 2003,
      "ites": 2004,
      "itie": 2005,
      "itter": 2006,
      "lew": 2007,
      "Ġwhite": 2008,
      "sec": 2009,
      "ches": 2010,
      "Ġhabit": 2011,
      "ral": 2012,
      "uty": 2013,
      "Ġshap": 2014,
      "Ġshield": 2015,
      "ode": 2016,
      "ody": 2017,
      "Ġref": 2018,
      "iding": 2019,
      "ided": 2020,
      "ash": 2021,
      "roy": 2022,
      "roach": 2023,
      "Ġonely": 2024,
      "Ġmeet": 2025,
      "Ġyield": 2026,
      "ĠLet": 2027,
      "ĠLost": 2028,
      "Why": 2029,
      "ĠPal": 2030,
      "Ġ110": 2031,
      "ĠHeb": 2032,
      "ĠCour": 2033,
      "ĠCapt": 2034,
      "rupt": 2035,
      "asting": 2036,
      "astity": 2037,
      "Oft": 2038,
      "ĠTri": 2039,
      "ĠFriend": 2040,
      "Ġneigh": 2041,
      "Ġloose": 2042,
      "Ġlocks": 2043,
      "quent": 2044,
      "ĠDeath": 2045,
      "Ġfail": 2046,
      "Ġfather": 2047,
      "Ġdeg": 2048,
      "ĠGodd": 2049,
      "eaves": 2050,
      "Ġflame": 2051,
      "ĠNat": 2052,
      "ishment": 2053,
      "ĠRel": 2054,
      "Ġhearts": 2055,
      "ĠThen": 2056,
      "ops": 2057,
      "Ġworks": 2058,
      "Ġraise": 2059,
      "eason": 2060,
      "rance": 2061,
      "Ġsway": 2062,
      "Ġenjoy": 2063,
      "Ġ163": 2064,
      "Ġprove": 2065,
      "Ġproof": 2066,
      "ĠJud": 2067,
      "agn": 2068,
      "Ġdisc": 2069,
      "Ġdism": 2070,
      "Ġdisp": 2071,
      "Ġhighest": 2072,
      "Ġfolly": 2073,
      "Ġquick": 2074,
      "Ġhaste": 2075,
      "Ġways": 2076,
      "ments": 2077,
      "ship": 2078,
      "Ġscar": 2079,
      "Ġdesert": 2080,
      "aza": 2081,
      "ready": 2082,
      "Ġeven": 2083,
      "itting": 2084,
      "Ġcontent": 2085,
      "ĠInf": 2086,
      "Ġfeel": 2087,
      "ĠAmong": 2088,
      "Ġaccording": 2089,
      "Ġsilence": 2090,
      "Ġwaves": 2091,
      "Ġprinted": 2092,
      "Ġservice": 2093,
      "Ġemph": 2094,
      "ĠPhilistines": 2095,
      "Ġwonder": 2096,
      "Ġperson": 2097,
      "Ġdefence": 2098,
      "Ġanger": 2099,
      "Ġwandring": 2100,
      "ĠAug": 2101,
      "Ġeasily": 2102,
      "Ġboast": 2103,
      "Ġhappy": 2104,
      "Ġspirits": 2105,
      "Ġcharms": 2106,
      "Ġmodern": 2107,
      "Ġutmost": 2108,
      "Ġmeans": 2109,
      "Ġfurther": 2110,
      "ircum": 2111,
      "Ġfancy": 2112,
      "ĠAngel": 2113,
      "ĠDeliver": 2114,
      "fety": 2115,
      "Ġpardon": 2116,
      "Ġindeed": 2117,
      "11": 2118,
      "13": 2119,
      "EM": 2120,
      "Him": 2121,
      "Hence": 2122,
      "Sm": 2123,
      "Sab": 2124,
      "Some": 2125,
      "aves": 2126,
      "bra": 2127,
      "ci": 2128,
      "eel": 2129,
      "gle": 2130,
      "hn": 2131,
      "ires": 2132,
      "lock": 2133,
      "mm": 2134,
      "min": 2135,
      "mon": 2136,
      "nk": 2137,
      "night": 2138,
      "oast": 2139,
      "pire": 2140,
      "prin": 2141,
      "pass": 2142,
      "rine": 2143,
      "sion": 2144,
      "und": 2145,
      "vate": 2146,
      "yll": 2147,
      "ying": 2148,
      "Ġ--": 2149,
      "Ġve": 2150,
      "Ġet": 2151,
      "Ġid": 2152,
      "Ġke": 2153,
      "ĠYet": 2154,
      "Ġrans": 2155,
      "then": 2156,
      "Ġthrone": 2157,
      "ĠĠĠĠĠĠĠĠĠĠ": 2158,
      "ĠĠĠĠĠĠĠĠĠĠĠĠĠĠĠ": 2159,
      "Ġact": 2160,
      "Ġsend": 2161,
      "Ġsought": 2162,
      "Ġwed": 2163,
      "Ġwit": 2164,
      "Ġwood": 2165,
      "Ġweep": 2166,
      "Ġwert": 2167,
      "Ġwild": 2168,
      "Ġwont": 2169,
      "Ġhur": 2170,
      "Ġhill": 2171,
      "Ġhost": 2172,
      "rep": 2173,
      "reth": 2174,
      "reath": 2175,
      "Ġmal": 2176,
      "Ġmur": 2177,
      "Ġmess": 2178,
      "Ġfin": 2179,
      "Ġfro": 2180,
      "Ġfight": 2181,
      "Ġfond": 2182,
      "Ġfears": 2183,
      "Ġfamous": 2184,
      "Ġbad": 2185,
      "Ġbore": 2186,
      "Ġten": 2187,
      "Ġtaught": 2188,
      "ones": 2189,
      "ora": 2190,
      "orm": 2191,
      "ately": 2192,
      "atience": 2193,
      "enge": 2194,
      "Ġdam": 2195,
      "Ġdaughter": 2196,
      "Ġdurst": 2197,
      "ĠĠĠĠĠĠĠĠĠĠĠĠĠĠĠĠĠĠĠĠĠĠĠĠĠĠĠĠĠĠĠĠĠĠĠĠĠĠĠĠĠĠ": 2198,
      "Ġcar": 2199,
      "Ġcro": 2200,
      "Ġcol": 2201,
      "Ġly": 2202,
      "Ġling": 2203,
      "Ġlim": 2204,
      "Ġlaid": 2205,
      "Ġpit": 2206,
      "Ġpun": 2207,
      "Ġpens": 2208,
      "Ġnone": 2209,
      "owre": 2210,
      "owing": 2211,
      "arg": 2212,
      "aring": 2213,
      "Ġgain": 2214,
      "Ġgift": 2215,
      "Ġgrant": 2216,
      "ĠIle": 2217,
      "ĠSph": 2218,
      "ĠSaint": 2219,
      "ries": 2220,
      "rice": 2221,
      "Ġshine": 2222,
      "Ġshade": 2223,
      "Ġstore": 2224,
      "Ġreceive": 2225,
      "verse": 2226,
      "Ġnote": 2227,
      "ĠLa": 2228,
      "Thee": 2229,
      "ĠAll": 2230,
      "ĠAss": 2231,
      "Ġ17": 2232,
      "Ġ120": 2233,
      "Ġ130": 2234,
      "Ġ140": 2235,
      "Ġ150": 2236,
      "ĠHill": 2237,
      "ĠHost": 2238,
      "ĠMen": 2239,
      "ĠMag": 2240,
      "ĠGath": 2241,
      "ĠGiant": 2242,
      "ĠGaza": 2243,
      "geon": 2244,
      "rud": 2245,
      "Ġvol": 2246,
      "ĠBra": 2247,
      "ĠBook": 2248,
      "ush": 2249,
      "usion": 2250,
      "Ġsport": 2251,
      "Ġspring": 2252,
      "Ġspelt": 2253,
      "Ġits": 2254,
      "ords": 2255,
      "ĠTime": 2256,
      "ĠFrom": 2257,
      "Ġchance": 2258,
      "Ġchild": 2259,
      "Ġcharm": 2260,
      "Ġneeds": 2261,
      "Ġnegle": 2262,
      "ĠEl": 2263,
      "quer": 2264,
      "Ġcomb": 2265,
      "Ġcoming": 2266,
      "Ġcompl": 2267,
      "Ġlib": 2268,
      "Ġblast": 2269,
      "Ġblaze": 2270,
      "ular": 2271,
      "umm": 2272,
      "umber": 2273,
      "pping": 2274,
      "ards": 2275,
      "Ġplain": 2276,
      "Ġplease": 2277,
      "ivity": 2278,
      "ĠName": 2279,
      "ĠRe": 2280,
      "Ġsage": 2281,
      "Ġsafety": 2282,
      "ĠThere": 2283,
      "Ġthirst": 2284,
      "Ġgloom": 2285,
      "nown": 2286,
      "nowled": 2287,
      "Ġexpl": 2288,
      "Ġexact": 2289,
      "Ġrace": 2290,
      "Ġamidst": 2291,
      "Ġsword": 2292,
      "Ġ160": 2293,
      "othing": 2294,
      "Ġabs": 2295,
      "Ġseems": 2296,
      "Ġclad": 2297,
      "Ġrude": 2298,
      "Ġrush": 2299,
      "Ġcanst": 2300,
      "ĠJehovah": 2301,
      "Ġears": 2302,
      "ĠĠĠĠĠĠĠĠĠĠĠĠĠĠĠĠĠĠĠĠĠĠĠĠĠĠĠĠĠĠĠĠĠ": 2303,
      "Ġfool": 2304,
      "bled": 2305,
      "Ġquest": 2306,
      "Samson": 2307,
      "Ġslow": 2308,
      "Ġslain": 2309,
      "selves": 2310,
      "ips": 2311,
      "ney": 2312,
      "Ġadd": 2313,
      "Ġends": 2314,
      "Ġoften": 2315,
      "Ġguide": 2316,
      "Ġguilt": 2317,
      "Ġremem": 2318,
      "Ġcontempt": 2319,
      "ymn": 2320,
      "Ġsingle": 2321,
      "ernal": 2322,
      "Ġbetray": 2323,
      "where": 2324,
      "Ġbrood": 2325,
      "Ġtrain": 2326,
      "Ġenter": 2327,
      "ĠShall": 2328,
      "Ġsilver": 2329,
      "Ġbehind": 2330,
      "ounsel": 2331,
      "Ġpride": 2332,
      "Ġprime": 2333,
      "Ġlooks": 2334,
      "Ġvertuous": 2335,
      "Ġaway": 2336,
      "Ġvisit": 2337,
      "mitted": 2338,
      "Ġwondrous": 2339,
      "Ġsuppl": 2340,
      "ĠNations": 2341,
      "Ġwanton": 2342,
      "Ġlearn": 2343,
      "Ġlearned": 2344,
      "Ġdaily": 2345,
      "ĠPrinces": 2346,
      "ĠAuthor": 2347,
      "Ġmorning": 2348,
      "Ġspirit": 2349,
      "Ġclouds": 2350,
      "ointed": 2351,
      "Ġbelow": 2352,
      "Above": 2353,
      "Ġrout": 2354,
      "Ġnumber": 2355,
      "Ġfierce": 2356,
      "Ġcourse": 2357,
      "Ġsuffer": 2358,
      "ĠNymphs": 2359,
      "Ġreason": 2360,
      "ween": 2361,
      "Ġaccept": 2362,
      "Ġinnoc": 2363,
      "Ġorder": 2364,
      "Ġvarious": 2365,
      "ĠSpirit": 2366,
      "Ġmourn": 2367,
      "Ġwelcom": 2368,
      "Ġfetch": 2369,
      "atisf": 2370,
      "ancholy": 2371,
      "ĠEngl": 2372,
      "Ġexample": 2373,
      "Ġneighbour": 2374,
      "Ġransom": 2375,
      "Ġmessage": 2376,
      "AC": 2377,
      "AS": 2378,
      "Bl": 2379,
      "Con": 2380,
      "Che": 2381,
      "DON": 2382,
      "ED": 2383,
      "Ex": 2384,
      "Ent": 2385,
      "Far": 2386,
      "Have": 2387,
      "IX": 2388,
      "Listen": 2389,
      "Me": 2390,
      "Nothing": 2391,
      "Sc": 2392,
      "ax": 2393,
      "bes": 2394,
      "bing": 2395,
      "but": 2396,
      "bid": 2397,
      "cor": 2398,
      "cess": 2399,
      "cure": 2400,
      "cious": 2401,
      "cean": 2402,
      "cience": 2403,
      "di": 2404,
      "dy": 2405,
      "dle": 2406,
      "dition": 2407,
      "gl": 2408,
      "gon": 2409,
      "gress": 2410,
      "her": 2411,
      "ii": 2412,
      "io": 2413,
      "iot": 2414,
      "iet": 2415,
      "ius": 2416,
      "jest": 2417,
      "light": 2418,
      "ner": 2419,
      "nal": 2420,
      "oar": 2421,
      "port": 2422,
      "tis": 2423,
      "ters": 2424,
      "upt": 2425,
      "yri": 2426,
      "yond": 2427,
      "ze": 2428,
      "Ġrow": 2429,
      "Ġire": 2430,
      "ĠWho": 2431,
      "ĠWhen": 2432,
      "Ġthan": 2433,
      "Ġthrow": 2434,
      "Ġthree": 2435,
      "Ġthrong": 2436,
      "Ġthunder": 2437,
      "Ġaught": 2438,
      "Ġacts": 2439,
      "Ġautograph": 2440,
      "inct": 2441,
      "Ġsore": 2442,
      "Ġsign": 2443,
      "Ġsatisf": 2444,
      "era": 2445,
      "erse": 2446,
      "Ġwrought": 2447,
      "Ġwrong": 2448,
      "Ġhour": 2449,
      "rets": 2450,
      "Ġmin": 2451,
      "Ġmut": 2452,
      "Ġmist": 2453,
      "Ġmass": 2454,
      "Ġmov": 2455,
      "Ġmute": 2456,
      "Ġmilde": 2457,
      "Ġmotion": 2458,
      "Ġmention": 2459,
      "Ġfold": 2460,
      "Ġfrown": 2461,
      "Ġbin": 2462,
      "Ġbri": 2463,
      "Ġbran": 2464,
      "Ġburn": 2465,
      "Ġbase": 2466,
      "Ġbatt": 2467,
      "Ġbody": 2468,
      "Ġtune": 2469,
      "orrow": 2470,
      "ats": 2471,
      "Ġdet": 2472,
      "Ġdri": 2473,
      "Ġdrin": 2474,
      "Ġdrows": 2475,
      "Ġdream": 2476,
      "Ġdishon": 2477,
      "eam": 2478,
      "Ġca": 2479,
      "Ġcut": 2480,
      "Ġcease": 2481,
      "Ġcool": 2482,
      "Ġcapt": 2483,
      "Ġlament": 2484,
      "Ġpop": 2485,
      "Ġpage": 2486,
      "Ġpress": 2487,
      "Ġpains": 2488,
      "Ġnigh": 2489,
      "ingly": 2490,
      "Thus": 2491,
      "omb": 2492,
      "omp": 2493,
      "ital": 2494,
      "arge": 2495,
      "Ġgon": 2496,
      "Ġgay": 2497,
      "Ġgrows": 2498,
      "Ġgirt": 2499,
      "Ġgifts": 2500,
      "irce": 2501,
      "Ġwher": 2502,
      "Ġwhence": 2503,
      "ĠIron": 2504,
      "cher": 2505,
      "ching": 2506,
      "ote": 2507,
      "Ġhaving": 2508,
      "raw": 2509,
      "rall": 2510,
      "ĠSin": 2511,
      "ĠSir": 2512,
      "ĠSain": 2513,
      "ried": 2514,
      "Ġur": 2515,
      "Ġshore": 2516,
      "Ġshout": 2517,
      "earing": 2518,
      "Ġstring": 2519,
      "Ġsteep": 2520,
      "Ġstray": 2521,
      "Ġrenew": 2522,
      "Ġreceiv": 2523,
      "Ġeev": 2524,
      "alks": 2525,
      "Ġbef": 2526,
      "ury": 2527,
      "uring": 2528,
      "ents": 2529,
      "asse": 2530,
      "rose": 2531,
      "Ġnotes": 2532,
      "ĠLib": 2533,
      "ilst": 2534,
      "ouring": 2535,
      "ĠPan": 2536,
      "ĠPres": 2537,
      "ĠPrison": 2538,
      "Ġfors": 2539,
      "ĠAd": 2540,
      "Ġ170": 2541,
      "ĠHy": 2542,
      "ĠCl": 2543,
      "ĠCy": 2544,
      "ĠCity": 2545,
      "ĠCons": 2546,
      "cknowled": 2547,
      "ĠGent": 2548,
      "gether": 2549,
      "eek": 2550,
      "ifie": 2551,
      "ĠBar": 2552,
      "Ġspare": 2553,
      "Ġspred": 2554,
      "Ġspec": 2555,
      "ĠTre": 2556,
      "ĠTim": 2557,
      "resent": 2558,
      "nts": 2559,
      "Ġchains": 2560,
      "emn": 2561,
      "Ġunjust": 2562,
      "ĠOcean": 2563,
      "pheus": 2564,
      "ĠEb": 2565,
      "ĠEn": 2566,
      "ĠEast": 2567,
      "Ġload": 2568,
      "Ġloath": 2569,
      "Ġkn": 2570,
      "Ġliving": 2571,
      "Ġdoes": 2572,
      "Ġdoom": 2573,
      "Ġblest": 2574,
      "Ġblame": 2575,
      "Ġthemselves": 2576,
      "ĠDo": 2577,
      "ĠDay": 2578,
      "icer": 2579,
      "icious": 2580,
      "umes": 2581,
      "Ġdeb": 2582,
      "Ġplight": 2583,
      "Ġplant": 2584,
      "ungeon": 2585,
      "ives": 2586,
      "Ġfled": 2587,
      "Ġflocks": 2588,
      "isht": 2589,
      "ĠReturn": 2590,
      "Ġsake": 2591,
      "Ġanough": 2592,
      "ĠThus": 2593,
      "Ġarg": 2594,
      "Ġrage": 2595,
      "Ġalas": 2596,
      "Ġalready": 2597,
      "Ġgreet": 2598,
      "Ġswift": 2599,
      "Ġenv": 2600,
      "Ġencl": 2601,
      "Ġ1653": 2602,
      "aken": 2603,
      "rina": 2604,
      "ables": 2605,
      "Ġabode": 2606,
      "Ġearly": 2607,
      "ĠVine": 2608,
      "Ġperform": 2609,
      "pless": 2610,
      "asson": 2611,
      "Ġfoot": 2612,
      "ĠHeaven": 2613,
      "bling": 2614,
      "Ġquit": 2615,
      "ĠTheir": 2616,
      "Ġimb": 2617,
      "Ġwouldst": 2618,
      "Ġslaughter": 2619,
      "Ġverse": 2620,
      "seless": 2621,
      "ĠCher": 2622,
      "ĠChar": 2623,
      "ĠChorus": 2624,
      "Ġrock": 2625,
      "Ġbrest": 2626,
      "Ġdesp": 2627,
      "Ġdesire": 2628,
      "Ġdescend": 2629,
      "Ġprey": 2630,
      "Ġheads": 2631,
      "Ġtrim": 2632,
      "Ġsecure": 2633,
      "ission": 2634,
      "Ġease": 2635,
      "Ġlovely": 2636,
      "aving": 2637,
      "avish": 2638,
      "Ġrestore": 2639,
      "Ġmisprin": 2640,
      "Ġbrings": 2641,
      "Ġsince": 2642,
      "Ġreturns": 2643,
      "Ġrighteous": 2644,
      "gged": 2645,
      "Ġaffect": 2646,
      "Ġsilent": 2647,
      "Ġfriendly": 2648,
      "Ġreveal": 2649,
      "ĠThyrs": 2650,
      "ĠManuscript": 2651,
      "ĠManoa": 2652,
      "Ġmio": 2653,
      "Ġmixt": 2654,
      "Ġinfl": 2655,
      "Ġstreams": 2656,
      "Ġparts": 2657,
      "Ġstrait": 2658,
      "ĠPrinted": 2659,
      "Ġevils": 2660,
      "urious": 2661,
      "Ġwisdom": 2662,
      "ĠProf": 2663,
      "ING": 2664,
      "ORD": 2665,
      "Ġskill": 2666,
      "arriage": 2667,
      "appy": 2668,
      "ĠWhy": 2669,
      "Ġsteps": 2670,
      "Ġesteem": 2671,
      "Ġdestroy": 2672,
      "Ġpossess": 2673,
      "Ġindign": 2674,
      "Ġwonted": 2675,
      "Ġhorrid": 2676,
      "Ġattendant": 2677,
      "Ġmiserable": 2678,
      "Ġfruit": 2679,
      "Ġconstra": 2680,
      "Ġexcell": 2681,
      "Ġpronoun": 2682,
      "Ġbecause": 2683,
      "ĠJohn": 2684,
      "Ġmedit": 2685,
      "ĠRelig": 2686,
      "Ġemphas": 2687,
      "Ġeternal": 2688,
      "Ġidle": 2689,
      "Ġmurm": 2690,
      "ĠThyrsis": 2691,
      "15": 2692,
      "17": 2693,
      "AI": 2694,
      "AM": 2695,
      "Can": 2696,
      "De": 2697,
      "Dis": 2698,
      "En": 2699,
      "Full": 2700,
      "HO": 2701,
      "Imp": 2702,
      "Jehovah": 2703,
      "Love": 2704,
      "Might": 2705,
      "Mine": 2706,
      "Made": 2707,
      "Ne": 2708,
      "Nat": 2709,
      "OS": 2710,
      "Over": 2711,
      "OEM": 2712,
      "Tell": 2713,
      "Trans": 2714,
      "US": 2715,
      "Upon": 2716,
      "You": 2717,
      "aim": 2718,
      "afe": 2719,
      "bar": 2720,
      "bers": 2721,
      "band": 2722,
      "bably": 2723,
      "cy": 2724,
      "cons": 2725,
      "cchi": 2726,
      "ds": 2727,
      "ept": 2728,
      "fl": 2729,
      "fold": 2730,
      "fted": 2731,
      "follow": 2732,
      "gment": 2733,
      "hor": 2734,
      "head": 2735,
      "iar": 2736,
      "lorn": 2737,
      "mity": 2738,
      "oi": 2739,
      "off": 2740,
      "oint": 2741,
      "obs": 2742,
      "oeb": 2743,
      "ping": 2744,
      "pest": 2745,
      "press": 2746,
      "ror": 2747,
      "rut": 2748,
      "ty": 2749,
      "tar": 2750,
      "ua": 2751,
      "vial": 2752,
      "way": 2753,
      "was": 2754,
      "wail": 2755,
      "ye": 2756,
      "ypt": 2757,
      "za": 2758,
      "Ġ.": 2759,
      "Ġris": 2760,
      "ĠUn": 2761,
      "Ġ------------------------": 2762,
      "ĠĠĠĠĠĠ": 2763,
      "Ġthreat": 2764,
      "Ġap": 2765,
      "Ġast": 2766,
      "Ġaid": 2767,
      "inch": 2768,
      "inks": 2769,
      "Ġsort": 2770,
      "Ġsigh": 2771,
      "Ġsease": 2772,
      "erfore": 2773,
      "Ġwin": 2774,
      "Ġwent": 2775,
      "Ġwine": 2776,
      "Ġwife": 2777,
      "Ġwealth": 2778,
      "Ġwalks": 2779,
      "Ġhorn": 2780,
      "Ġheal": 2781,
      "Ġought": 2782,
      "reme": 2783,
      "Ġmer": 2784,
      "Ġmain": 2785,
      "Ġmould": 2786,
      "Ġmak": 2787,
      "Ġmount": 2788,
      "Ġmove": 2789,
      "Ġmatch": 2790,
      "Ġmirth": 2791,
      "Ġmercy": 2792,
      "Ġfu": 2793,
      "Ġfat": 2794,
      "Ġfour": 2795,
      "Ġfee": 2796,
      "Ġfron": 2797,
      "Ġfaint": 2798,
      "Ġfix": 2799,
      "Ġfixt": 2800,
      "Ġbus": 2801,
      "Ġbind": 2802,
      "Ġbrow": 2803,
      "Ġbud": 2804,
      "Ġbears": 2805,
      "Ġbanks": 2806,
      "Ġte": 2807,
      "Ġtear": 2808,
      "Ġtempt": 2809,
      "Ġtakes": 2810,
      "Ġtitle": 2811,
      "orth": 2812,
      "ories": 2813,
      "atin": 2814,
      "ating": 2815,
      "ench": 2816,
      "Ġdw": 2817,
      "Ġdem": 2818,
      "Ġdust": 2819,
      "Ġdeal": 2820,
      "Ġdanc": 2821,
      "Ġdaint": 2822,
      "each": 2823,
      "eaks": 2824,
      "ĠĠĠĠĠĠĠĠĠĠĠĠĠĠĠĠĠĠĠĠĠĠĠĠĠĠĠĠĠĠĠĠĠĠĠĠĠĠĠĠĠĠĠĠ": 2825,
      "Ġcal": 2826,
      "Ġcur": 2827,
      "Ġcent": 2828,
      "Ġciv": 2829,
      "Ġcold": 2830,
      "Ġcele": 2831,
      "Ġlod": 2832,
      "Ġlend": 2833,
      "Ġlust": 2834,
      "Ġlap": 2835,
      "Ġlater": 2836,
      "Ġpace": 2837,
      "Ġpatience": 2838,
      "Ġner": 2839,
      "Ġnon": 2840,
      "Ġnur": 2841,
      "stall": 2842,
      "stand": 2843,
      "Ġtoy": 2844,
      "any": 2845,
      "Ġgot": 2846,
      "Ġgaze": 2847,
      "let": 2848,
      "seen": 2849,
      "ĠIf": 2850,
      "vel": 2851,
      "ched": 2852,
      "charg": 2853,
      "otted": 2854,
      "Ġhaunt": 2855,
      "ĠSl": 2856,
      "ĠSat": 2857,
      "ĠSac": 2858,
      "ĠScept": 2859,
      "elm": 2860,
      "elest": 2861,
      "eless": 2862,
      "Ġunto": 2863,
      "Ġshad": 2864,
      "odious": 2865,
      "Ġstud": 2866,
      "Ġstory": 2867,
      "Ġreb": 2868,
      "Ġrear": 2869,
      "Ġreck": 2870,
      "Ġeff": 2871,
      "aly": 2872,
      "aying": 2873,
      "uro": 2874,
      "vering": 2875,
      "rove": 2876,
      "road": 2877,
      "Ġmem": 2878,
      "Ġyears": 2879,
      "ĠLad": 2880,
      "ĠLON": 2881,
      "Whether": 2882,
      "illars": 2883,
      "estiv": 2884,
      "ourney": 2885,
      "ĠPs": 2886,
      "ĠPip": 2887,
      "ĠPubl": 2888,
      "Ġformer": 2889,
      "Ġforbid": 2890,
      "ĠHath": 2891,
      "ĠMel": 2892,
      "ĠMess": 2893,
      "ĠMaid": 2894,
      "ĠMother": 2895,
      "Ġash": 2896,
      "ĠCan": 2897,
      "Too": 2898,
      "essant": 2899,
      "ckt": 2900,
      "ĠGo": 2901,
      "ĠGold": 2902,
      "ruction": 2903,
      "Ġvast": 2904,
      "usk": 2905,
      "Ġspent": 2906,
      "Ġspee": 2907,
      "orded": 2908,
      "ĠTw": 2909,
      "ĠTitle": 2910,
      "ĠFame": 2911,
      "Ġchose": 2912,
      "emper": 2913,
      "ante": 2914,
      "antine": 2915,
      "Ġunh": 2916,
      "Ġuns": 2917,
      "ists": 2918,
      "istes": 2919,
      "isted": 2920,
      "ando": 2921,
      "Ġloves": 2922,
      "Ġwash": 2923,
      "Ġbloss": 2924,
      "olation": 2925,
      "ulg": 2926,
      "ĠDe": 2927,
      "ĠDan": 2928,
      "ical": 2929,
      "ume": 2930,
      "ĠWom": 2931,
      "ĠWind": 2932,
      "ĠWilt": 2933,
      "Ġdeed": 2934,
      "Ġplac": 2935,
      "iving": 2936,
      "ivine": 2937,
      "Ġjourney": 2938,
      "Ġflie": 2939,
      "Ġflock": 2940,
      "Ġflames": 2941,
      "ĠNight": 2942,
      "ĠRu": 2943,
      "Ġhearken": 2944,
      "osi": 2945,
      "oso": 2946,
      "oses": 2947,
      "opes": 2948,
      "Ġgli": 2949,
      "Ġglut": 2950,
      "Ġstrew": 2951,
      "Ġsheen": 2952,
      "Ġrais": 2953,
      "Ġalmost": 2954,
      "igli": 2955,
      "Ġamorous": 2956,
      "Ġenth": 2957,
      "Ġenough": 2958,
      "Ġhadst": 2959,
      "arents": 2960,
      "Ġproph": 2961,
      "onds": 2962,
      "Ġabide": 2963,
      "Ġabroad": 2964,
      "Ġclime": 2965,
      "Ġruin": 2966,
      "Ġrule": 2967,
      "Ġoutward": 2968,
      "ĠJoy": 2969,
      "ĠJac": 2970,
      "ertue": 2971,
      "ĠVi": 2972,
      "ager": 2973,
      "acle": 2974,
      "acsim": 2975,
      "Ġquell": 2976,
      "Ġquaint": 2977,
      "Ġdayes": 2978,
      "Ġgoodness": 2979,
      "apital": 2980,
      "Ġoffice": 2981,
      "Ġslight": 2982,
      "Ġvers": 2983,
      "ONG": 2984,
      "resses": 2985,
      "Ġrose": 2986,
      "Ġroof": 2987,
      "Ġbreed": 2988,
      "Notes": 2989,
      "Ġdesc": 2990,
      "ealous": 2991,
      "Ġnightly": 2992,
      "epul": 2993,
      "like": 2994,
      "ĠStars": 2995,
      "fully": 2996,
      "Ġtriumph": 2997,
      "Ġtrivial": 2998,
      "angu": 2999,
      "angled": 3000,
      "perience": 3001,
      "Ġovert": 3002,
      "Ġguard": 3003,
      "Ġremains": 3004,
      "Ġremaining": 3005,
      "Once": 3006,
      "ierce": 3007,
      "Ġreport": 3008,
      "Ġreproach": 3009,
      "criber": 3010,
      "Ġrespect": 3011,
      "aughters": 3012,
      "Ġpoet": 3013,
      "Ġpresence": 3014,
      "ĠArc": 3015,
      "ĠArm": 3016,
      "ĠArms": 3017,
      "Ġfeign": 3018,
      "ĠBrothers": 3019,
      "Ġmisch": 3020,
      "ragon": 3021,
      "Ġnews": 3022,
      "Before": 3023,
      "which": 3024,
      "Ġbroad": 3025,
      "Ġbrook": 3026,
      "Ġsooner": 3027,
      "Ġpurs": 3028,
      "Ġpurpose": 3029,
      "Ġpassage": 3030,
      "Ġimportun": 3031,
      "Ġentertain": 3032,
      "Ġaccident": 3033,
      "Ġmortals": 3034,
      "Ġprinter": 3035,
      "Ġhumble": 3036,
      "ĠPoem": 3037,
      "ĠPoets": 3038,
      "ĠPoems": 3039,
      "Comes": 3040,
      "Ġdrawn": 3041,
      "akesp": 3042,
      "Ġseeking": 3043,
      "Ġmeek": 3044,
      "Ġvict": 3045,
      "Ġsuppose": 3046,
      "Ġpleasure": 3047,
      "Ġflowry": 3048,
      "ollo": 3049,
      "Ġpersw": 3050,
      "Ġdelights": 3051,
      "Ġbesides": 3052,
      "Ġparted": 3053,
      "Ġenemy": 3054,
      "Ġfollows": 3055,
      "Ġio": 3056,
      "Ġwomb": 3057,
      "Ġtransgress": 3058,
      "Ġgives": 3059,
      "Ġadvant": 3060,
      "Ġeasie": 3061,
      "Ġwisest": 3062,
      "Ġforet": 3063,
      "Ġbeams": 3064,
      "Ġleads": 3065,
      "erved": 3066,
      "Ġwrit": 3067,
      "Ġharsh": 3068,
      "Ġodours": 3069,
      "Ġodorous": 3070,
      "Ġfreed": 3071,
      "About": 3072,
      "rata": 3073,
      "Ġopen": 3074,
      "Ġbounds": 3075,
      "Ġcourt": 3076,
      "Ġpossible": 3077,
      "Ġpublic": 3078,
      "Ġtowards": 3079,
      "ampion": 3080,
      "Ġhideous": 3081,
      "ĠScene": 3082,
      "Ġreasons": 3083,
      "Ġbegins": 3084,
      "ĠComus": 3085,
      "ĠWorld": 3086,
      "Ġaged": 3087,
      "Ġtrouble": 3088,
      "Ġtemper": 3089,
      "Ġrequest": 3090,
      "Wherwith": 3091,
      "ĠTemple": 3092,
      "Ġaffliction": 3093,
      "ourage": 3094,
      "ourable": 3095,
      "Ġtreas": 3096,
      "ĠCountrey": 3097,
      "Ġviolence": 3098,
      "Ġmouths": 3099,
      "Ġbrute": 3100,
      "Ġbeneath": 3101,
      "Ġregard": 3102,
      "ĠLXXX": 3103,
      "ĠGlass": 3104,
      "Ġdifferent": 3105,
      "Ġtimely": 3106,
      "Ġdeny": 3107,
      "ĠCaptive": 3108,
      "ĠTribe": 3109,
      "ĠGoddes": 3110,
      "Ġscarce": 3111,
      "ĠDeliverer": 3112,
      "Sabrina": 3113,
      "oasts": 3114,
      "Ġkept": 3115,
      "Ġlingua": 3116,
      "Ġpunishment": 3117,
      "Ġliberty": 3118,
      "ĠEnglish": 3119,
      "gonistes": 3120,
      "Ġdrowsie": 3121,
      "ĠSaints": 3122,
      "ĠCyn": 3123,
      "cknowledge": 3124,
      "ĠEnem": 3125,
      "Ġargument": 3126,
      "Transcriber": 3127,
      "oebus": 3128,
      "Ġ--------------------------": 3129,
      "ĠLONDON": 3130,
      ").": 3131,
      ");": 3132,
      ".'": 3133,
      "Ad": 3134,
      "Ar": 3135,
      "Aff": 3136,
      "Bes": 3137,
      "Ben": 3138,
      "Both": 3139,
      "Cl": 3140,
      "Could": 3141,
      "Down": 3142,
      "Dep": 3143,
      "Def": 3144,
      "EL": 3145,
      "ET": 3146,
      "Either": 3147,
      "Fear": 3148,
      "Find": 3149,
      "Fame": 3150,
      "First": 3151,
      "Gu": 3152,
      "Hel": 3153,
      "ID": 3154,
      "Lest": 3155,
      "Less": 3156,
      "LES": 3157,
      "OM": 3158,
      "Pl": 3159,
      "Par": 3160,
      "PON": 3161,
      "RE": 3162,
      "RI": 3163,
      "Re": 3164,
      "Rise": 3165,
      "Sin": 3166,
      "Sle": 3167,
      "See": 3168,
      "Tri": 3169,
      "THE": 3170,
      "Toward": 3171,
      "VI": 3172,
      "VII": 3173,
      "VIII": 3174,
      "War": 3175,
      "Ye": 3176,
      "Yea": 3177,
      "ai": 3178,
      "ares": 3179,
      "ather": 3180,
      "ault": 3181,
      "bre": 3182,
      "bow": 3183,
      "bed": 3184,
      "bro": 3185,
      "bian": 3186,
      "cis": 3187,
      "cuse": 3188,
      "ding": 3189,
      "dest": 3190,
      "dess": 3191,
      "diant": 3192,
      "ek": 3193,
      "ford": 3194,
      "go": 3195,
      "gs": 3196,
      "ger": 3197,
      "gal": 3198,
      "gue": 3199,
      "hear": 3200,
      "hand": 3201,
      "hold": 3202,
      "ior": 3203,
      "iate": 3204,
      "ipt": 3205,
      "ium": 3206,
      "iance": 3207,
      "iov": 3208,
      "kes": 3209,
      "lab": 3210,
      "lorious": 3211,
      "lasting": 3212,
      "mble": 3213,
      "mrose": 3214,
      "mission": 3215,
      "ners": 3216,
      "oot": 3217,
      "oid": 3218,
      "oof": 3219,
      "oots": 3220,
      "oosom": 3221,
      "pro": 3222,
      "path": 3223,
      "pond": 3224,
      "pris": 3225,
      "pense": 3226,
      "rit": 3227,
      "rot": 3228,
      "rise": 3229,
      "sie": 3230,
      "sol": 3231,
      "tri": 3232,
      "uence": 3233,
      "upp": 3234,
      "vest": 3235,
      "wise": 3236,
      "wixt": 3237,
      "xx": 3238,
      "your": 3239,
      "zen": 3240,
      "ĠZ": 3241,
      "Ġir": 3242,
      "Ġign": 3243,
      "there": 3244,
      "thought": 3245,
      "ĠĠĠĠĠĠĠĠĠĠĠ": 3246,
      "Ġayr": 3247,
      "Ġacknowledge": 3248,
      "inth": 3249,
      "ining": 3250,
      "iness": 3251,
      "Ġsn": 3252,
      "Ġsy": 3253,
      "Ġsed": 3254,
      "Ġsus": 3255,
      "Ġsong": 3256,
      "Ġsig": 3257,
      "Ġsalt": 3258,
      "Ġsna": 3259,
      "Ġsnare": 3260,
      "Ġseason": 3261,
      "Ġsitting": 3262,
      "erous": 3263,
      "Ġwake": 3264,
      "Ġwave": 3265,
      "Ġwater": 3266,
      "Ġwreath": 3267,
      "Ġwaving": 3268,
      "Ġhit": 3269,
      "Ġhee": 3270,
      "Ġoh": 3271,
      "Ġore": 3272,
      "Ġobl": 3273,
      "Ġobe": 3274,
      "reh": 3275,
      "Ġmir": 3276,
      "Ġmood": 3277,
      "Ġmiss": 3278,
      "Ġmaid": 3279,
      "Ġmakes": 3280,
      "Ġmeasure": 3281,
      "Ġmagn": 3282,
      "isc": 3283,
      "isit": 3284,
      "ision": 3285,
      "Ġfle": 3286,
      "Ġfem": 3287,
      "Ġfant": 3288,
      "Ġfood": 3289,
      "Ġfate": 3290,
      "Ġfame": 3291,
      "Ġfits": 3292,
      "Ġfountain": 3293,
      "Ġba": 3294,
      "Ġber": 3295,
      "Ġbru": 3296,
      "Ġband": 3297,
      "Ġbount": 3298,
      "Ġbank": 3299,
      "Ġblew": 3300,
      "Ġbones": 3301,
      "Ġbonds": 3302,
      "Ġty": 3303,
      "Ġtro": 3304,
      "Ġtest": 3305,
      "Ġtum": 3306,
      "Ġtread": 3307,
      "Ġtrod": 3308,
      "onna": 3309,
      "lla": 3310,
      "llen": 3311,
      "ena": 3312,
      "enius": 3313,
      "Ġdu": 3314,
      "Ġdea": 3315,
      "Ġdull": 3316,
      "Ġdred": 3317,
      "Ġdang": 3318,
      "Ġdying": 3319,
      "Ġdrud": 3320,
      "Ġdaughters": 3321,
      "eare": 3322,
      "eather": 3323,
      "eable": 3324,
      "eans": 3325,
      "ĠĠĠĠĠĠĠĠĠĠĠĠĠĠĠĠĠĠĠĠĠĠĠĠĠĠĠĠĠĠĠĠĠĠĠĠĠĠĠĠĠĠĠĠĠĠĠ": 3326,
      "Ġcure": 3327,
      "Ġcorn": 3328,
      "Ġcreat": 3329,
      "Ġcover": 3330,
      "Ġcrew": 3331,
      "Ġcirc": 3332,
      "Ġcounsel": 3333,
      "Ġcapital": 3334,
      "Ġcourage": 3335,
      "Ġlon": 3336,
      "Ġlat": 3337,
      "Ġlent": 3338,
      "Ġlull": 3339,
      "Ġlean": 3340,
      "Ġlift": 3341,
      "Ġleaves": 3342,
      "Ġpu": 3343,
      "Ġprom": 3344,
      "Ġport": 3345,
      "Ġpull": 3346,
      "Ġpity": 3347,
      "Ġpath": 3348,
      "Ġpaid": 3349,
      "Ġprison": 3350,
      "Ġprod": 3351,
      "Ġpowers": 3352,
      "Ġpomp": 3353,
      "Ġpierce": 3354,
      "Ġnam": 3355,
      "Ġnames": 3356,
      "ster": 3357,
      "stain": 3358,
      "sters": 3359,
      "stem": 3360,
      "ingle": 3361,
      "ingale": 3362,
      "Ġtogether": 3363,
      "anth": 3364,
      "Thrice": 3365,
      "itted": 3366,
      "arch": 3367,
      "Ġgr": 3368,
      "Ġgar": 3369,
      "Ġgone": 3370,
      "ird": 3371,
      "Ġwheel": 3372,
      "seem": 3373,
      "ĠIN": 3374,
      "ĠIvy": 3375,
      "vey": 3376,
      "che": 3377,
      "cho": 3378,
      "otes": 3379,
      "etra": 3380,
      "etimes": 3381,
      "ĠSy": 3382,
      "ĠSen": 3383,
      "ĠSil": 3384,
      "ĠSever": 3385,
      "ĠServ": 3386,
      "ĠSeat": 3387,
      "ĠSONG": 3388,
      "ĠSepul": 3389,
      "uts": 3390,
      "Ġunt": 3391,
      "Ġshow": 3392,
      "Ġsham": 3393,
      "Ġshare": 3394,
      "erend": 3395,
      "Ġstar": 3396,
      "Ġstir": 3397,
      "Ġstain": 3398,
      "Ġstru": 3399,
      "Ġstands": 3400,
      "Ġreach": 3401,
      "Ġrenown": 3402,
      "Ġeie": 3403,
      "Ġequ": 3404,
      "ales": 3405,
      "alil": 3406,
      "Ġbeyond": 3407,
      "Ġbewail": 3408,
      "ids": 3409,
      "ider": 3410,
      "urch": 3411,
      "roves": 3412,
      "ioness": 3413,
      "Ġmeer": 3414,
      "Ġyon": 3415,
      "Ġyear": 3416,
      "Ġyee": 3417,
      "Ġyoke": 3418,
      "ĠLion": 3419,
      "ĠLife": 3420,
      "ĠLike": 3421,
      "ĠLangu": 3422,
      "ilight": 3423,
      "ility": 3424,
      "ainted": 3425,
      "ourse": 3426,
      "ĠPR": 3427,
      "ĠPer": 3428,
      "ĠPaul": 3429,
      "ĠPOEM": 3430,
      "ĠPillars": 3431,
      "ĠParents": 3432,
      "Ġforc": 3433,
      "Ġforlorn": 3434,
      "ĠAx": 3435,
      "ĠAnt": 3436,
      "ĠActs": 3437,
      "ĠAyr": 3438,
      "ĠAgonistes": 3439,
      "Ġ180": 3440,
      "Ġ190": 3441,
      "ĠHon": 3442,
      "ĠHear": 3443,
      "ĠHall": 3444,
      "ĠHeath": 3445,
      "ĠHoly": 3446,
      "ĠHymn": 3447,
      "ĠHoasts": 3448,
      "allow": 3449,
      "ĠMat": 3450,
      "ĠMit": 3451,
      "ĠMay": 3452,
      "ĠMill": 3453,
      "ĠMercy": 3454,
      "Ġaside": 3455,
      "ĠCause": 3456,
      "ĠCont": 3457,
      "ĠCirce": 3458,
      "ĠGre": 3459,
      "ĠGree": 3460,
      "geous": 3461,
      "Ġvill": 3462,
      "Ġvile": 3463,
      "Ġvac": 3464,
      "Ġvows": 3465,
      "ctu": 3466,
      "ifi": 3467,
      "ifted": 3468,
      "Ġsooth": 3469,
      "ĠBl": 3470,
      "ĠBri": 3471,
      "ĠBab": 3472,
      "ĠBeast": 3473,
      "ĠBreth": 3474,
      "usband": 3475,
      "Ġspear": 3476,
      "Ġsup": 3477,
      "Ġsunk": 3478,
      "Ġsullen": 3479,
      "asters": 3480,
      "ĠTurn": 3481,
      "ĠTroph": 3482,
      "elle": 3483,
      "ĠFur": 3484,
      "ĠFirst": 3485,
      "ĠFacsim": 3486,
      "Ġchi": 3487,
      "Ġchang": 3488,
      "Ġchastity": 3489,
      "Ġcheek": 3490,
      "anto": 3491,
      "Ġunex": 3492,
      "Ġunivers": 3493,
      "Ġnecess": 3494,
      "Ġnoon": 3495,
      "ĠOx": 3496,
      "ĠEd": 3497,
      "ĠEg": 3498,
      "ĠEp": 3499,
      "ĠEx": 3500,
      "Without": 3501,
      "Ġloft": 3502,
      "Ġkiss": 3503,
      "Ġcomple": 3504,
      "Ġblow": 3505,
      "Ġblot": 3506,
      "Ġbloom": 3507,
      "olt": 3508,
      "olence": 3509,
      "ĠDragon": 3510,
      "ices": 3511,
      "iculous": 3512,
      "umb": 3513,
      "ĠWe": 3514,
      "ĠWo": 3515,
      "ĠWar": 3516,
      "ĠWill": 3517,
      "ĠWine": 3518,
      "ĠWife": 3519,
      "ĠWarri": 3520,
      "Ġfac": 3521,
      "Ġfact": 3522,
      "Ġfault": 3523,
      "Ġdecl": 3524,
      "Ġpledge": 3525,
      "eaving": 3526,
      "eavour": 3527,
      "Ġshallow": 3528,
      "Ġjoc": 3529,
      "Ġjoin": 3530,
      "Ġjealous": 3531,
      "Ġsometimes": 3532,
      "ĠNaz": 3533,
      "ĠNept": 3534,
      "ĠRight": 3535,
      "ĠRead": 3536,
      "ĠReg": 3537,
      "eads": 3538,
      "osa": 3539,
      "osyll": 3540,
      "Ġsable": 3541,
      "opy": 3542,
      "oping": 3543,
      "ounds": 3544,
      "ounded": 3545,
      "Ġthird": 3546,
      "Ġexpect": 3547,
      "Ġexperience": 3548,
      "Ġexcuse": 3549,
      "ired": 3550,
      "Ġrash": 3551,
      "Ġraign": 3552,
      "Ġradiant": 3553,
      "Ġamor": 3554,
      "rann": 3555,
      "Ġswain": 3556,
      "Ġens": 3557,
      "rint": 3558,
      "Ġproves": 3559,
      "Ġprocl": 3560,
      "Ġpropos": 3561,
      "Ġprobably": 3562,
      "abl": 3563,
      "Ġruine": 3564,
      "Ġrules": 3565,
      "Ġrural": 3566,
      "Ġrugged": 3567,
      "oyce": 3568,
      "udd": 3569,
      "ĠJust": 3570,
      "Ġearn": 3571,
      "erto": 3572,
      "Ġeverlasting": 3573,
      "ĠVerse": 3574,
      "Ġdispos": 3575,
      "Ġdisgu": 3576,
      "Ġperish": 3577,
      "acious": 3578,
      "Ġweeds": 3579,
      "Ġimag": 3580,
      "Ġimpl": 3581,
      "Ġhowever": 3582,
      "Ġoffence": 3583,
      "ccess": 3584,
      "Ġslumber": 3585,
      "Ġgreater": 3586,
      "ians": 3587,
      "ĠChastity": 3588,
      "ĠChampion": 3589,
      "ĠChurch": 3590,
      "Ġprai": 3591,
      "shood": 3592,
      "Ġadorn": 3593,
      "Ġscap": 3594,
      "wards": 3595,
      "Ġrob": 3596,
      "Ġroar": 3597,
      "Ġdeserve": 3598,
      "Ġgray": 3599,
      "Ġshouldst": 3600,
      "Ġprefer": 3601,
      "Soft": 3602,
      "lier": 3603,
      "liest": 3604,
      "Ġended": 3605,
      "Ġlastly": 3606,
      "Ġtwilight": 3607,
      "angs": 3608,
      "Ġcalls": 3609,
      "Ġevent": 3610,
      "Ġsecrets": 3611,
      "Ġguess": 3612,
      "Ġcontr": 3613,
      "Ġcontra": 3614,
      "Ġreprint": 3615,
      "ecause": 3616,
      "Ġresort": 3617,
      "Ġpoor": 3618,
      "Ġpoems": 3619,
      "Ġpresum": 3620,
      "Ġready": 3621,
      "Ġreader": 3622,
      "ĠPhoebus": 3623,
      "Ġsweetly": 3624,
      "Ġfeats": 3625,
      "Ġrestless": 3626,
      "ĠBrother": 3627,
      "Ġspells": 3628,
      "clean": 3629,
      "feit": 3630,
      "Ġhollow": 3631,
      "Ġattempt": 3632,
      "Begin": 3633,
      "Ġfarr": 3634,
      "Ġbrother": 3635,
      "Ġcouldst": 3636,
      "Ġassur": 3637,
      "Ġassail": 3638,
      "ctions": 3639,
      "ĠFair": 3640,
      "Ġlively": 3641,
      "Ġtravail": 3642,
      "Ġpurple": 3643,
      "ĠSpring": 3644,
      "Ġjoyn": 3645,
      "Ġearths": 3646,
      "ggs": 3647,
      "Ġwaies": 3648,
      "Ġhunder": 3649,
      "Ġprint": 3650,
      "Ġintent": 3651,
      "Ġintended": 3652,
      "Ġrevenge": 3653,
      "Ġreverend": 3654,
      "Ġeditions": 3655,
      "ĠOff": 3656,
      "Ġheavenly": 3657,
      "ounc": 3658,
      "Ġfalshood": 3659,
      "ĠPoet": 3660,
      "Ġvertues": 3661,
      "Ġsurround": 3662,
      "ĠHeroic": 3663,
      "Ġvision": 3664,
      "Ġvisage": 3665,
      "ĠSongs": 3666,
      "Ġconfusion": 3667,
      "overn": 3668,
      "Ġwonders": 3669,
      "Ġdistress": 3670,
      "Ġsupport": 3671,
      "Ġcompar": 3672,
      "Ġpleasing": 3673,
      "Ġpleasures": 3674,
      "Ġflowers": 3675,
      "ercise": 3676,
      "Ġdeadly": 3677,
      "Ġnatures": 3678,
      "Ġwarr": 3679,
      "Ġbeside": 3680,
      "ĠLawns": 3681,
      "Ġcheer": 3682,
      "Ġyouthful": 3683,
      "Ġfollowed": 3684,
      "Ġangry": 3685,
      "Ġanguish": 3686,
      "Ġcorrupt": 3687,
      "Ġgiven": 3688,
      "Ġadvise": 3689,
      "Ġoccurs": 3690,
      "Ġbeam": 3691,
      "Ġbeauty": 3692,
      "Ġlabours": 3693,
      "ĠSwain": 3694,
      "ĠPrimrose": 3695,
      "eeming": 3696,
      "Ġcharge": 3697,
      "Ġblindness": 3698,
      "Ġworlds": 3699,
      "Ġperfet": 3700,
      "Ġskies": 3701,
      "Ġwrite": 3702,
      "Ġodious": 3703,
      "Ġfreely": 3704,
      "Ġfrequent": 3705,
      "Ġstrict": 3706,
      "Ġstrife": 3707,
      "Ġforgive": 3708,
      "ENT": 3709,
      "ĠWhose": 3710,
      "Ġtoucht": 3711,
      "Ġnumbers": 3712,
      "Ġsurely": 3713,
      "acter": 3714,
      "spring": 3715,
      "Ġerr": 3716,
      "Ġfiery": 3717,
      "Ġdestruction": 3718,
      "Ġdiff": 3719,
      "Ġpublish": 3720,
      "Ġgrove": 3721,
      "ĠTrump": 3722,
      "Ġconceal": 3723,
      "Ġconcern": 3724,
      "Ġfaithful": 3725,
      "Ġarmed": 3726,
      "Ġwickedness": 3727,
      "Ġutter": 3728,
      "Ġharmony": 3729,
      "Ġfrail": 3730,
      "Ġnearer": 3731,
      "Ġunfold": 3732,
      "Ġridiculous": 3733,
      "Ġdeliverance": 3734,
      "IST": 3735,
      "Ġrank": 3736,
      "ĠQuire": 3737,
      "Ġacqu": 3738,
      "Ġweary": 3739,
      "Ġmusick": 3740,
      "Ġtroubl": 3741,
      "Ġcuor": 3742,
      "Ġcruel": 3743,
      "ĠIdols": 3744,
      "Wherin": 3745,
      "ĠApollo": 3746,
      "ĠMarble": 3747,
      "ĠTemples": 3748,
      "ĠSpirits": 3749,
      "SONG": 3750,
      "mbly": 3751,
      "poems": 3752,
      "Ġheave": 3753,
      "Ġheaps": 3754,
      "Ġhidden": 3755,
      "Ġmajest": 3756,
      "Ġfields": 3757,
      "Ġstrange": 3758,
      "Ġsleeping": 3759,
      "ĠSirens": 3760,
      "ĠLXXXV": 3761,
      "Ġfortune": 3762,
      "Ġliquor": 3763,
      "Ġliquid": 3764,
      "Ġseveral": 3765,
      "Ġresolv": 3766,
      "Perhaps": 3767,
      "Sweet": 3768,
      "Ġwatry": 3769,
      "Ġobscure": 3770,
      "Ġmelodious": 3771,
      "Ġbarren": 3772,
      "Ġburden": 3773,
      "Ġcrie": 3774,
      "secute": 3775,
      "Ġshapes": 3776,
      "ĠLetter": 3777,
      "ĠCourt": 3778,
      "ĠCourts": 3779,
      "ircumcis": 3780,
      "Himself": 3781,
      "Ġhurt": 3782,
      "Ġhostile": 3783,
      "Ġcross": 3784,
      "Ġpensive": 3785,
      "ĠSaintly": 3786,
      "ĠHosts": 3787,
      "Ġneglected": 3788,
      "Ġcombat": 3789,
      "Ġcomplain": 3790,
      "ĠRegain": 3791,
      "Ġgloomy": 3792,
      "Ġquestion": 3793,
      "Ġrememb": 3794,
      "Ġsupplies": 3795,
      "Ġinnocence": 3796,
      "ACE": 3797,
      "Conf": 3798,
      "binger": 3799,
      "uptial": 3800,
      "yrian": 3801,
      "Ġburning": 3802,
      "Ġurg": 3803,
      "ĠLiberty": 3804,
      "Ġspecial": 3805,
      "ĠEbrew": 3806,
      "ĠEastern": 3807,
      "ĠCherub": 3808,
      "Ġrighteousness": 3809,
      "Ġinfluence": 3810,
      "Ġmeditate": 3811,
      "ĠReligion": 3812,
      "Nature": 3813,
      "Ġapace": 3814,
      "Ġfront": 3815,
      "Ġcalam": 3816,
      "Ġcenter": 3817,
      "Ġcivil": 3818,
      "Ġceleb": 3819,
      "Ġnerves": 3820,
      "Ġnurse": 3821,
      "ĠSacri": 3822,
      "ĠScepter": 3823,
      "elestial": 3824,
      "Ġshadows": 3825,
      "Ġrebell": 3826,
      "Ġmemory": 3827,
      "ĠPublic": 3828,
      "Ġblossom": 3829,
      "ĠNightingale": 3830,
      "ĠRuth": 3831,
      "iglia": 3832,
      "Ġenthron": 3833,
      "ĠJacobs": 3834,
      "Ġpursue": 3835,
      "Ġforetold": 3836,
      "Besides": 3837,
      "Since": 3838,
      "labour": 3839,
      "Ġsigne": 3840,
      "Ġsnares": 3841,
      "Ġcreatures": 3842,
      "ĠLanguage": 3843,
      "ĠTrophies": 3844,
      "ĠFacsimile": 3845,
      "Ġlofty": 3846,
      "ĠNeptune": 3847,
      "Ġproclaim": 3848,
      ".--": 3849,
      "18": 3850,
      "24": 3851,
      "38": 3852,
      "47": 3853,
      "AG": 3854,
      "Ah": 3855,
      "Ay": 3856,
      "App": 3857,
      "Bet": 3858,
      "Bear": 3859,
      "Brought": 3860,
      "CA": 3861,
      "Came": 3862,
      "Cons": 3863,
      "CHE": 3864,
      "Cont": 3865,
      "Da": 3866,
      "Do": 3867,
      "Dro": 3868,
      "Draw": 3869,
      "Divine": 3870,
      "End": 3871,
      "Ere": 3872,
      "Fl": 3873,
      "Fair": 3874,
      "Follow": 3875,
      "Gent": 3876,
      "Gain": 3877,
      "Gave": 3878,
      "Great": 3879,
      "HY": 3880,
      "Hear": 3881,
      "Hid": 3882,
      "Hard": 3883,
      "Heav": 3884,
      "Hail": 3885,
      "IB": 3886,
      "IC": 3887,
      "IM": 3888,
      "IR": 3889,
      "Ir": 3890,
      "Int": 3891,
      "Imm": 3892,
      "Just": 3893,
      "LE": 3894,
      "Lord": 3895,
      "Look": 3896,
      "Must": 3897,
      "Most": 3898,
      "Much": 3899,
      "Mean": 3900,
      "Mirth": 3901,
      "Masson": 3902,
      "NG": 3903,
      "Night": 3904,
      "Nymph": 3905,
      "Next": 3906,
      "OL": 3907,
      "OP": 3908,
      "PH": 3909,
      "Ph": 3910,
      "RY": 3911,
      "Return": 3912,
      "ST": 3913,
      "Set": 3914,
      "Sent": 3915,
      "Sto": 3916,
      "Sec": 3917,
      "TA": 3918,
      "TH": 3919,
      "TO": 3920,
      "Tis": 3921,
      "Trag": 3922,
      "UM": 3923,
      "Up": 3924,
      "Unt": 3925,
      "Vertue": 3926,
      "XI": 3927,
      "aus": 3928,
      "after": 3929,
      "aeus": 3930,
      "boosom": 3931,
      "cin": 3932,
      "can": 3933,
      "cal": 3934,
      "cly": 3935,
      "cest": 3936,
      "cont": 3937,
      "der": 3938,
      "dra": 3939,
      "day": 3940,
      "eer": 3941,
      "een": 3942,
      "ege": 3943,
      "eated": 3944,
      "fill": 3945,
      "fort": 3946,
      "fice": 3947,
      "fect": 3948,
      "gn": 3949,
      "gan": 3950,
      "goes": 3951,
      "how": 3952,
      "hair": 3953,
      "iel": 3954,
      "iam": 3955,
      "ially": 3956,
      "jud": 3957,
      "kin": 3958,
      "kie": 3959,
      "known": 3960,
      "land": 3961,
      "lip": 3962,
      "lause": 3963,
      "more": 3964,
      "mbl": 3965,
      "maid": 3966,
      "net": 3967,
      "oz": 3968,
      "oil": 3969,
      "oits": 3970,
      "par": 3971,
      "pra": 3972,
      "poral": 3973,
      "rour": 3974,
      "rist": 3975,
      "rons": 3976,
      "rated": 3977,
      "rrata": 3978,
      "sse": 3979,
      "sper": 3980,
      "safe": 3981,
      "ta": 3982,
      "ti": 3983,
      "tor": 3984,
      "tle": 3985,
      "ui": 3986,
      "uce": 3987,
      "ura": 3988,
      "uall": 3989,
      "uff": 3990,
      "ualt": 3991,
      "vere": 3992,
      "vil": 3993,
      "ws": 3994,
      "wor": 3995,
      "worn": 3996,
      "water": 3997,
      "ys": 3998,
      "yre": 3999,
      "zza": 4000,
      "Ġ?": 4001,
      "Ġx": 4002,
      "Ġz": 4003,
      "Ġes": 4004,
      "Ġess": 4005,
      "Ġeld": 4006,
      "that": 4007,
      "thrown": 4008,
      "Ġthri": 4009,
      "Ġthither": 4010,
      "Ġthank": 4011,
      "Ġthrall": 4012,
      "Ġtherfore": 4013,
      "ĠĠĠĠĠĠĠĠĠ": 4014,
      "Ġau": 4015,
      "Ġav": 4016,
      "Ġable": 4017,
      "Ġaust": 4018,
      "inc": 4019,
      "inv": 4020,
      "inter": 4021,
      "inish": 4022,
      "Ġsim": 4023,
      "Ġsine": 4024,
      "Ġsqu": 4025,
      "Ġsick": 4026,
      "Ġsings": 4027,
      "Ġsons": 4028,
      "Ġsix": 4029,
      "erable": 4030,
      "ermin": 4031,
      "nde": 4032,
      "Ġwan": 4033,
      "Ġwet": 4034,
      "Ġwid": 4035,
      "Ġwest": 4036,
      "Ġwak": 4037,
      "Ġhell": 4038,
      "Ġhind": 4039,
      "Ġhol": 4040,
      "Ġhue": 4041,
      "Ġhours": 4042,
      "Ġhealth": 4043,
      "Ġhopes": 4044,
      "Ġocchi": 4045,
      "rel": 4046,
      "rear": 4047,
      "rent": 4048,
      "rease": 4049,
      "rels": 4050,
      "ouns": 4051,
      "Ġmate": 4052,
      "Ġmeas": 4053,
      "Ġmag": 4054,
      "Ġmild": 4055,
      "Ġmia": 4056,
      "Ġmother": 4057,
      "Ġmelt": 4058,
      "Ġmerc": 4059,
      "Ġmatter": 4060,
      "Ġmountains": 4061,
      "Ġmoral": 4062,
      "Ġmorrow": 4063,
      "isse": 4064,
      "isper": 4065,
      "Ġfing": 4066,
      "Ġfut": 4067,
      "Ġfam": 4068,
      "Ġful": 4069,
      "Ġfun": 4070,
      "Ġfright": 4071,
      "Ġfestiv": 4072,
      "Ġban": 4073,
      "Ġble": 4074,
      "Ġbent": 4075,
      "Ġbeast": 4076,
      "Ġbalm": 4077,
      "Ġburi": 4078,
      "Ġbane": 4079,
      "Ġbott": 4080,
      "Ġburst": 4081,
      "Ġbitter": 4082,
      "Ġtal": 4083,
      "Ġtall": 4084,
      "Ġtree": 4085,
      "Ġtang": 4086,
      "Ġturb": 4087,
      "Ġteach": 4088,
      "Ġtresses": 4089,
      "esh": 4090,
      "esie": 4091,
      "ona": 4092,
      "onc": 4093,
      "onious": 4094,
      "orable": 4095,
      "orgeous": 4096,
      "atly": 4097,
      "atrous": 4098,
      "lls": 4099,
      "llic": 4100,
      "eno": 4101,
      "enes": 4102,
      "enry": 4103,
      "Ġdin": 4104,
      "Ġdom": 4105,
      "Ġdir": 4106,
      "Ġdil": 4107,
      "Ġdate": 4108,
      "Ġdare": 4109,
      "Ġdry": 4110,
      "Ġdale": 4111,
      "Ġdrew": 4112,
      "Ġdank": 4113,
      "Ġdamp": 4114,
      "Ġdaunt": 4115,
      "Ġdash": 4116,
      "Ġdungeon": 4117,
      "Ġduro": 4118,
      "Ġdrear": 4119,
      "Ġcra": 4120,
      "Ġcam": 4121,
      "Ġcell": 4122,
      "Ġcost": 4123,
      "Ġcoy": 4124,
      "Ġcens": 4125,
      "Ġcours": 4126,
      "Ġcase": 4127,
      "Ġcircum": 4128,
      "Ġcords": 4129,
      "Ġcelestial": 4130,
      "Ġlord": 4131,
      "Ġlake": 4132,
      "Ġlack": 4133,
      "Ġlang": 4134,
      "Ġlatter": 4135,
      "Ġluck": 4136,
      "Ġlately": 4137,
      "Ġlarge": 4138,
      "Ġlavish": 4139,
      "Ġph": 4140,
      "Ġpet": 4141,
      "Ġpil": 4142,
      "Ġpost": 4143,
      "Ġpeal": 4144,
      "Ġpause": 4145,
      "Ġpec": 4146,
      "Ġpett": 4147,
      "Ġprot": 4148,
      "Ġpangs": 4149,
      "Ġnak": 4150,
      "Ġnaught": 4151,
      "Ġnought": 4152,
      "Ġnurs": 4153,
      "stal": 4154,
      "stood": 4155,
      "strous": 4156,
      "strate": 4157,
      "stantine": 4158,
      "inguish": 4159,
      "Ġtop": 4160,
      "Ġinh": 4161,
      "Ġinfer": 4162,
      "Ġinmost": 4163,
      "Ġinform": 4164,
      "Ġiniqu": 4165,
      "Thine": 4166,
      "edly": 4167,
      "edition": 4168,
      "oment": 4169,
      "itent": 4170,
      "itable": 4171,
      "arite": 4172,
      "ithe": 4173,
      "Ġgate": 4174,
      "Ġgran": 4175,
      "Ġgrown": 4176,
      "Ġgates": 4177,
      "Ġgener": 4178,
      "ceed": 4179,
      "ceit": 4180,
      "leeve": 4181,
      "vels": 4182,
      "chus": 4183,
      "chaste": 4184,
      "chioness": 4185,
      "Ġhap": 4186,
      "Ġhaples": 4187,
      "ram": 4188,
      "rand": 4189,
      "rais": 4190,
      "raim": 4191,
      "rass": 4192,
      "ĠSer": 4193,
      "ĠSion": 4194,
      "ĠSnow": 4195,
      "elie": 4196,
      "rib": 4197,
      "ril": 4198,
      "rious": 4199,
      "rivi": 4200,
      "Ġuph": 4201,
      "Ġuseless": 4202,
      "Ġshook": 4203,
      "Ġshady": 4204,
      "Ġshifts": 4205,
      "Ġshrine": 4206,
      "earch": 4207,
      "ereft": 4208,
      "amor": 4209,
      "ameld": 4210,
      "amber": 4211,
      "amily": 4212,
      "Ġsto": 4213,
      "Ġstor": 4214,
      "Ġstro": 4215,
      "Ġstead": 4216,
      "Ġstage": 4217,
      "Ġstern": 4218,
      "Ġstub": 4219,
      "Ġstole": 4220,
      "Ġsteel": 4221,
      "Ġstorm": 4222,
      "Ġstately": 4223,
      "Ġrever": 4224,
      "Ġregain": 4225,
      "Ġrender": 4226,
      "Ġrecom": 4227,
      "Ġrejoy": 4228,
      "Ġeies": 4229,
      "alf": 4230,
      "alms": 4231,
      "Ġbeleeve": 4232,
      "immer": 4233,
      "lys": 4234,
      "urg": 4235,
      "urp": 4236,
      "enty": 4237,
      "ented": 4238,
      "asions": 4239,
      "vert": 4240,
      "roll": 4241,
      "Ġnoted": 4242,
      "Ġyea": 4243,
      "ĠLo": 4244,
      "ĠLill": 4245,
      "ĠLocks": 4246,
      "ĠLuc": 4247,
      "ĠLAT": 4248,
      "ĠLeaves": 4249,
      "ĠLORD": 4250,
      "ĠLatin": 4251,
      "Whilst": 4252,
      "illions": 4253,
      "esta": 4254,
      "esting": 4255,
      "estic": 4256,
      "ils": 4257,
      "iling": 4258,
      "ilot": 4259,
      "ilous": 4260,
      "ĠPra": 4261,
      "ĠPers": 4262,
      "ĠPred": 4263,
      "ĠPilot": 4264,
      "Ġforms": 4265,
      "ĠAG": 4266,
      "ĠAgain": 4267,
      "ĠAeg": 4268,
      "ĠAutograph": 4269,
      "Ġ19": 4270,
      "ĠHes": 4271,
      "ĠHell": 4272,
      "ĠHerd": 4273,
      "ĠHope": 4274,
      "ĠHouse": 4275,
      "ĠHair": 4276,
      "ĠHEN": 4277,
      "allel": 4278,
      "ĠMS": 4279,
      "ĠMa": 4280,
      "ĠMe": 4281,
      "ĠMin": 4282,
      "ĠMorn": 4283,
      "ĠMount": 4284,
      "ĠMountain": 4285,
      "ĠMountains": 4286,
      "ĠMAS": 4287,
      "ĠMasson": 4288,
      "ĠMarriage": 4289,
      "Ġascend": 4290,
      "orest": 4291,
      "ĠCry": 4292,
      "ĠCave": 4293,
      "ĠCows": 4294,
      "ĠCoun": 4295,
      "ĠColl": 4296,
      "ĠCup": 4297,
      "Ġallow": 4298,
      "Took": 4299,
      "ĠGu": 4300,
      "ĠGenius": 4301,
      "ĠGovern": 4302,
      "Ġorn": 4303,
      "rust": 4304,
      "rung": 4305,
      "runk": 4306,
      "Ġvent": 4307,
      "Ġvig": 4308,
      "Ġvag": 4309,
      "Ġvap": 4310,
      "Ġvirgin": 4311,
      "Ġvoyce": 4312,
      "ctar": 4313,
      "ification": 4314,
      "Ġsov": 4315,
      "Ġsoyl": 4316,
      "ĠBond": 4317,
      "ĠBac": 4318,
      "ĠBirth": 4319,
      "ĠBeh": 4320,
      "Ġherds": 4321,
      "Ġspot": 4322,
      "Ġspun": 4323,
      "Ġspake": 4324,
      "Ġspoke": 4325,
      "Ġspeaks": 4326,
      "Ġspangled": 4327,
      "Ġsphear": 4328,
      "Ġitself": 4329,
      "ordon": 4330,
      "Ġsum": 4331,
      "Ġsuck": 4332,
      "Ġsuper": 4333,
      "Ġsubs": 4334,
      "Ġsuoi": 4335,
      "aster": 4336,
      "astle": 4337,
      "astick": 4338,
      "ĠTO": 4339,
      "ĠTor": 4340,
      "ĠTill": 4341,
      "ĠTray": 4342,
      "ĠTowers": 4343,
      "ĠTomb": 4344,
      "ells": 4345,
      "ĠFort": 4346,
      "ĠFool": 4347,
      "ĠFoes": 4348,
      "ĠFamily": 4349,
      "respond": 4350,
      "Ġcha": 4351,
      "Ġcho": 4352,
      "Ġchill": 4353,
      "Ġchain": 4354,
      "Ġchime": 4355,
      "Ġchuse": 4356,
      "emph": 4357,
      "empl": 4358,
      "anti": 4359,
      "antle": 4360,
      "Ġunst": 4361,
      "Ġunite": 4362,
      "Ġunsh": 4363,
      "Ġunlock": 4364,
      "Ġunseen": 4365,
      "Ġunclean": 4366,
      "Ġheat": 4367,
      "Ġheir": 4368,
      "Ġneat": 4369,
      "Ġneither": 4370,
      "Ġnectar": 4371,
      "istrat": 4372,
      "oseph": 4373,
      "ĠON": 4374,
      "phear": 4375,
      "phraim": 4376,
      "ĠED": 4377,
      "ĠEm": 4378,
      "ĠEth": 4379,
      "ĠEnd": 4380,
      "ĠEle": 4381,
      "ĠEld": 4382,
      "ĠEur": 4383,
      "ĠEars": 4384,
      "ĠEev": 4385,
      "ĠErrata": 4386,
      "ĠElys": 4387,
      "ĠEphraim": 4388,
      "Within": 4389,
      "ptuous": 4390,
      "Ġknot": 4391,
      "Ġlik": 4392,
      "Ġliv": 4393,
      "Ġlives": 4394,
      "Ġblown": 4395,
      "Ġblank": 4396,
      "olves": 4397,
      "ulse": 4398,
      "ulsion": 4399,
      "uliar": 4400,
      "ĠDa": 4401,
      "ĠDian": 4402,
      "ĠDalil": 4403,
      "ending": 4404,
      "Ġconv": 4405,
      "icount": 4406,
      "ummer": 4407,
      "ustrious": 4408,
      "ĠWis": 4409,
      "ĠWest": 4410,
      "ĠWool": 4411,
      "ĠWinch": 4412,
      "Ġdeity": 4413,
      "Ġdeceiv": 4414,
      "Ġdeceit": 4415,
      "Ġplea": 4416,
      "unk": 4417,
      "uns": 4418,
      "Ġjoint": 4419,
      "Ġflatter": 4420,
      "Ġflesh": 4421,
      "Ġsomthing": 4422,
      "ĠNor": 4423,
      "ĠNay": 4424,
      "ishes": 4425,
      "ĠRE": 4426,
      "ĠRh": 4427,
      "ĠRoy": 4428,
      "ĠRocks": 4429,
      "ĠRob": 4430,
      "ĠReason": 4431,
      "ĠRoses": 4432,
      "Ġhearth": 4433,
      "Ġupright": 4434,
      "osen": 4435,
      "osing": 4436,
      "Ġwillingly": 4437,
      "Ġsaf": 4438,
      "Ġsav": 4439,
      "ĠThom": 4440,
      "ĠThine": 4441,
      "augh": 4442,
      "Ġsees": 4443,
      "Ġseest": 4444,
      "Ġseven": 4445,
      "Ġthirty": 4446,
      "orning": 4447,
      "Ġglist": 4448,
      "Ġglance": 4449,
      "Ġglowing": 4450,
      "Ġstreet": 4451,
      "Ġworship": 4452,
      "Ġsheild": 4453,
      "Ġmans": 4454,
      "Ġarise": 4455,
      "Ġargu": 4456,
      "Ġarched": 4457,
      "Ġexec": 4458,
      "Ġexempt": 4459,
      "Ġexcept": 4460,
      "Ġray": 4461,
      "Ġrare": 4462,
      "Ġrapt": 4463,
      "Ġalter": 4464,
      "Ġalike": 4465,
      "igious": 4466,
      "Ġamain": 4467,
      "Ġamend": 4468,
      "Ġamaze": 4469,
      "ickle": 4470,
      "Ġencom": 4471,
      "Ġenchant": 4472,
      "Ġenvy": 4473,
      "aker": 4474,
      "rink": 4475,
      "Ġproport": 4476,
      "Ġprosecute": 4477,
      "Ġprosper": 4478,
      "Ġabhor": 4479,
      "Ġwherein": 4480,
      "Ġwherefore": 4481,
      "Fors": 4482,
      "Ġseeing": 4483,
      "Ġclust": 4484,
      "Ġrum": 4485,
      "ĠJoseph": 4486,
      "Ġevermore": 4487,
      "ĠVale": 4488,
      "ĠVicount": 4489,
      "ages": 4490,
      "Ġdisease": 4491,
      "Ġdissol": 4492,
      "Ġhighth": 4493,
      "Ġhigher": 4494,
      "Ġhighly": 4495,
      "Ġpermitted": 4496,
      "Ġperilous": 4497,
      "ploy": 4498,
      "ĠHeavens": 4499,
      "acc": 4500,
      "acy": 4501,
      "acinth": 4502,
      "Ġ**": 4503,
      "Ġquiet": 4504,
      "Ġknowst": 4505,
      "ĠThee": 4506,
      "ĠThem": 4507,
      "Ġimit": 4508,
      "Ġtruly": 4509,
      "Ġoffended": 4510,
      "Ġslide": 4511,
      "Ġslip": 4512,
      "Ġslack": 4513,
      "Ġslavish": 4514,
      "Ġgreatest": 4515,
      "Ġverd": 4516,
      "ilty": 4517,
      "reep": 4518,
      "Ġotherwise": 4519,
      "ĠChance": 4520,
      "ĠChrist": 4521,
      "Ġyeer": 4522,
      "Ġyeers": 4523,
      "Ġpraier": 4524,
      "Ġpraises": 4525,
      "Ġadm": 4526,
      "Ġadore": 4527,
      "Ġadde": 4528,
      "Ġroom": 4529,
      "Ġroot": 4530,
      "Ġrosie": 4531,
      "Ġbread": 4532,
      "Ġ670": 4533,
      "Ġ680": 4534,
      "Ġlighter": 4535,
      "Ġgrain": 4536,
      "Ġgracious": 4537,
      "Ġshoulders": 4538,
      "Ġsomething": 4539,
      "Ġhonest": 4540,
      "Ġfairly": 4541,
      "Heb": 4542,
      "Ġbestow": 4543,
      "Ġprep": 4544,
      "Ġprevail": 4545,
      "Soon": 4546,
      "reader": 4547,
      "ĠState": 4548,
      "Ġheadlong": 4549,
      "Ġlasting": 4550,
      "Ġappears": 4551,
      "Ġappreh": 4552,
      "Ġtwain": 4553,
      "Ġtwisted": 4554,
      "Ġtrial": 4555,
      "Ġtripp": 4556,
      "Ġoverthrown": 4557,
      "Ġ200": 4558,
      "Ġfoundation": 4559,
      "Ġguile": 4560,
      "Ġunderstood": 4561,
      "Ġremor": 4562,
      "Ġremov": 4563,
      "Ġcontin": 4564,
      "ieri": 4565,
      "Ġpowerful": 4566,
      "ancy": 4567,
      "ances": 4568,
      "ancers": 4569,
      "Ġrepent": 4570,
      "ecy": 4571,
      "yme": 4572,
      "Ġsinging": 4573,
      "Ġresist": 4574,
      "aven": 4575,
      "avour": 4576,
      "Ġpoem": 4577,
      "Ġsweetest": 4578,
      "Ġfeed": 4579,
      "Ġleg": 4580,
      "ĠBrook": 4581,
      "Ġ22": 4582,
      "Ġ25": 4583,
      "Ġ220": 4584,
      "Ġ210": 4585,
      "Ġ290": 4586,
      "Ġfinding": 4587,
      "Ġcommend": 4588,
      "Ġcommands": 4589,
      "Ġcommitted": 4590,
      "Ġkeeps": 4591,
      "Many": 4592,
      "Ġbetween": 4593,
      "Ġattention": 4594,
      "what": 4595,
      "when": 4596,
      "Ġminds": 4597,
      "Ġbroke": 4598,
      "Ġgoes": 4599,
      "Ġassay": 4600,
      "Ġassign": 4601,
      "Ġassaul": 4602,
      "Ġassault": 4603,
      "inters": 4604,
      "Ġsincer": 4605,
      "emption": 4606,
      "Should": 4607,
      "Ġtrains": 4608,
      "Ġpurpos": 4609,
      "Ġpursu": 4610,
      "Ġpassion": 4611,
      "Ġjoyes": 4612,
      "Ġimport": 4613,
      "Ġimpos": 4614,
      "Speak": 4615,
      "Ġenters": 4616,
      "Ġlowest": 4617,
      "ĠAmar": 4618,
      "Ġrightly": 4619,
      "ĠPhiloso": 4620,
      "Unless": 4621,
      "ggi": 4622,
      "Ġrod": 4623,
      "Ġafford": 4624,
      "ĠSheep": 4625,
      "ĠShakesp": 4626,
      "cription": 4627,
      "Ġhuge": 4628,
      "Ġintend": 4629,
      "Ġservil": 4630,
      "Ġservant": 4631,
      "Ġservitude": 4632,
      "Ġ810": 4633,
      "Ġ880": 4634,
      "Ġheavy": 4635,
      "Ġdiam": 4636,
      "Ġcounter": 4637,
      "Ġ760": 4638,
      "Ġsorry": 4639,
      "Ġsorrows": 4640,
      "Ġsurcharg": 4641,
      "Ġsurpris": 4642,
      "Ġsurvey": 4643,
      "Ġembra": 4644,
      "Ġvisited": 4645,
      "Ġconsum": 4646,
      "Ġconsort": 4647,
      "Ġconscience": 4648,
      "Comus": 4649,
      "EST": 4650,
      "Still": 4651,
      "Ġdearly": 4652,
      "Ġconfin": 4653,
      "Ġconfess": 4654,
      "Ġconfus": 4655,
      "Ġconfidence": 4656,
      "Ġafterwards": 4657,
      "Ġsaddest": 4658,
      "Ġdisturb": 4659,
      "Ġleaf": 4660,
      "Ġleague": 4661,
      "Ġinfli": 4662,
      "ĠAltar": 4663,
      "Ġcompany": 4664,
      "Ġpleasant": 4665,
      "rench": 4666,
      "Ġpersons": 4667,
      "Ġnative": 4668,
      "Ġwarbled": 4669,
      "Ġwarbling": 4670,
      "Ġwanted": 4671,
      "Ġlearnt": 4672,
      "Ġgrim": 4673,
      "Ġstrain": 4674,
      "ĠLawes": 4675,
      "Ġjudgment": 4676,
      "Ġyouthfull": 4677,
      "ixed": 4678,
      "Ġii": 4679,
      "ĠĠĠĠĠĠĠĠĠĠĠĠĠ": 4680,
      "Ġwander": 4681,
      "Ġhelpless": 4682,
      "Ġtransl": 4683,
      "Ġtransform": 4684,
      "Ġcorporal": 4685,
      "Ġadvent": 4686,
      "Ġadvanc": 4687,
      "Ġsmoak": 4688,
      "1673": 4689,
      "Ġmetre": 4690,
      "Ġboosom": 4691,
      "ĠSolemn": 4692,
      "ĠSword": 4693,
      "ĠProse": 4694,
      "ĠMuses": 4695,
      "Ġuncouth": 4696,
      "Ġuncessant": 4697,
      "Ġuncircumcis": 4698,
      "Ġworthy": 4699,
      "Ġworthiest": 4700,
      "ORACE": 4701,
      "credible": 4702,
      "Ġsky": 4703,
      "Ġwritt": 4704,
      "Ġbowr": 4705,
      "otton": 4706,
      "ottage": 4707,
      "Ġforgot": 4708,
      "Ġbreathing": 4709,
      "ĠKingdom": 4710,
      "Ġroul": 4711,
      "Ġdrove": 4712,
      "Ġlisten": 4713,
      "etters": 4714,
      "ĠFlocks": 4715,
      "ĠFlowers": 4716,
      "ATION": 4717,
      "eys": 4718,
      "guided": 4719,
      "rateful": 4720,
      "ĠUnto": 4721,
      "Ġerrand": 4722,
      "Ġestate": 4723,
      "Ġmidst": 4724,
      "Ġmidnight": 4725,
      "Ġbuon": 4726,
      "Ġbuilt": 4727,
      "Ġbuild": 4728,
      "Ġdestin": 4729,
      "Ġcertainly": 4730,
      "Ġlaws": 4731,
      "Ġpublick": 4732,
      "Ġinvite": 4733,
      "Ġstrongest": 4734,
      "Ġrecorded": 4735,
      "Ġredemption": 4736,
      "Ġrelie": 4737,
      "ĠPlut": 4738,
      "ĠOrpheus": 4739,
      "Ġbloody": 4740,
      "Ġfaithfull": 4741,
      "Ġdevout": 4742,
      "Ġdevotion": 4743,
      "Ġseats": 4744,
      "apha": 4745,
      "Ġwoe": 4746,
      "Ġwoo": 4747,
      "Ġmeant": 4748,
      "Ġfrailty": 4749,
      "Ġtua": 4750,
      "Ġtufted": 4751,
      "ĠConquer": 4752,
      "ĠConstantine": 4753,
      "Ġvalour": 4754,
      "Ġvalue": 4755,
      "Ġchiefly": 4756,
      "Ġblessing": 4757,
      "ĠWorks": 4758,
      "ĠNoble": 4759,
      "Ġgladly": 4760,
      "Alas": 4761,
      "Ġrang": 4762,
      "Ġranks": 4763,
      "Ġagen": 4764,
      "Ġmonosyll": 4765,
      "Ġmonstrous": 4766,
      "Ġmusing": 4767,
      "Ġbrand": 4768,
      "Ġtemple": 4769,
      "Ġtempest": 4770,
      "Ġcui": 4771,
      "Ġcrude": 4772,
      "Ġinnum": 4773,
      "Ġbegan": 4774,
      "ĠAngels": 4775,
      "ĠMarchioness": 4776,
      "ĠDelph": 4777,
      "Ġrichest": 4778,
      "Ġfirmament": 4779,
      "Ġmiseries": 4780,
      "Ġreturning": 4781,
      "Ġafflict": 4782,
      "ĠYouth": 4783,
      "Ġobject": 4784,
      "Ġmoan": 4785,
      "Ġmoist": 4786,
      "Ġcondition": 4787,
      "Ġcondemn": 4788,
      "Ġinchanting": 4789,
      "Ġinchantments": 4790,
      "ĠHebe": 4791,
      "ĠGraces": 4792,
      "ĠBefore": 4793,
      "Ġspreads": 4794,
      "Ġunpar": 4795,
      "aunting": 4796,
      "Ġexceed": 4797,
      "Ġviolent": 4798,
      "Amongst": 4799,
      "pitaph": 4800,
      "Ġsensual": 4801,
      "Ġsensualt": 4802,
      "Ġweapon": 4803,
      "Ġdores": 4804,
      "Ġpronouns": 4805,
      "Ġbecome": 4806,
      "rophe": 4807,
      "Ġvanqu": 4808,
      "Ġprovidence": 4809,
      "ĠJoves": 4810,
      "Ġpretious": 4811,
      "Ġresolution": 4812,
      "Ġcorrection": 4813,
      "ĠPriests": 4814,
      "ique": 4815,
      "Ġrings": 4816,
      "Ġthickest": 4817,
      "Ġwaters": 4818,
      "Ġwounds": 4819,
      "Ġoppress": 4820,
      "Ġmelancholy": 4821,
      "Ġbooks": 4822,
      "Ġcrime": 4823,
      "Ġpenitent": 4824,
      "Ġshape": 4825,
      "ĠPalest": 4826,
      "ĠPalace": 4827,
      "rupted": 4828,
      "ĠFriends": 4829,
      "ĠGoddess": 4830,
      "ĠNature": 4831,
      "ĠNativity": 4832,
      "Ġ1637": 4833,
      "ĠJudge": 4834,
      "ĠJudah": 4835,
      "Ġdismal": 4836,
      "ĠInfant": 4837,
      "ĠAmongst": 4838,
      "Smo": 4839,
      "Ġwedlock": 4840,
      "Ġwitness": 4841,
      "Ġweeping": 4842,
      "Ġhills": 4843,
      "Ġdamsel": 4844,
      "Ġcarry": 4845,
      "Ġpensieri": 4846,
      "ĠSphear": 4847,
      "ĠLaure": 4848,
      "ĠAsses": 4849,
      "ĠHills": 4850,
      "ĠMagistrat": 4851,
      "ĠBracly": 4852,
      "Ġcharmed": 4853,
      "Ġneglect": 4854,
      "ummers": 4855,
      "Ġplainly": 4856,
      "Ġexploits": 4857,
      "Ġexactly": 4858,
      "Ġguilty": 4859,
      "Ġremember": 4860,
      "Ġbrooding": 4861,
      "Ġsupplication": 4862,
      "Ġinnocent": 4863,
      "Ġneighbourhood": 4864,
      "Blind": 4865,
      "Enter": 4866,
      "correspond": 4867,
      "herit": 4868,
      "Ġsatisfi": 4869,
      "Ġmassie": 4870,
      "Ġbranches": 4871,
      "Ġbattel": 4872,
      "Ġdetermin": 4873,
      "Ġdrink": 4874,
      "Ġdrinks": 4875,
      "Ġdishonour": 4876,
      "Ġeeven": 4877,
      "ĠPresident": 4878,
      "Ġforsook": 4879,
      "ĠHyacinth": 4880,
      "ĠConscience": 4881,
      "ĠGentiles": 4882,
      "Ġspreds": 4883,
      "ĠTimna": 4884,
      "Ġloathsom": 4885,
      "ĠDoct": 4886,
      "Ġenvious": 4887,
      "ĠChariot": 4888,
      "Ġmisprint": 4889,
      "Ġmisprints": 4890,
      "Ġindignities": 4891,
      "Ġconstrain": 4892,
      "Ġemphasis": 4893,
      "Ġmurmurs": 4894,
      "Young": 4895,
      "consum": 4896,
      "follows": 4897,
      "Ġrises": 4898,
      "Ġthreatn": 4899,
      "Ġsighs": 4900,
      "Ġmatchless": 4901,
      "Ġfatal": 4902,
      "Ġfeeble": 4903,
      "Ġdwels": 4904,
      "Ġeffect": 4905,
      "ĠLadies": 4906,
      "ĠMelancholy": 4907,
      "Ġspeech": 4908,
      "ĠTwo": 4909,
      "Ġwasht": 4910,
      "ulgar": 4911,
      "ĠDeitie": 4912,
      "ĠWomen": 4913,
      "Ġprophane": 4914,
      "Ġovertake": 4915,
      "Ġmischief": 4916,
      "Ġimportunity": 4917,
      "Ġentertainment": 4918,
      "Ġvictorious": 4919,
      "Ġperswade": 4920,
      "Ġadvantage": 4921,
      "Ġfreedom": 4922,
      "ĠEnemies": 4923,
      "Afford": 4924,
      "Paradise": 4925,
      "handed": 4926,
      "Ġsystem": 4927,
      "Ġobey": 4928,
      "Ġfemale": 4929,
      "Ġfantastick": 4930,
      "Ġbaits": 4931,
      "Ġtestifie": 4932,
      "Ġdrudge": 4933,
      "Ġcircle": 4934,
      "Ġlonely": 4935,
      "Ġlatest": 4936,
      "Ġprompt": 4937,
      "Ġgrind": 4938,
      "ĠPOEMS": 4939,
      "ĠHeathen": 4940,
      "Ġvacant": 4941,
      "ĠBride": 4942,
      "ĠBrethren": 4943,
      "Ġuniversal": 4944,
      "Ġcompleat": 4945,
      "umbring": 4946,
      "ĠWootton": 4947,
      "Ġjocond": 4948,
      "ĠNazarite": 4949,
      "ĠReader": 4950,
      "ĠRegions": 4951,
      "Ġensnare": 4952,
      "ĠJustice": 4953,
      "Ġearnest": 4954,
      "Ġdisguise": 4955,
      "Ġimagin": 4956,
      "Ġscape": 4957,
      "Ġcontradi": 4958,
      "Ġhunderd": 4959,
      "ĠOfficer": 4960,
      "Ġdiffus": 4961,
      "Ġremembrance": 4962,
      "Ġcelebrate": 4963,
      "Gainst": 4964,
      "Ġsinews": 4965,
      "Ġfulfill": 4966,
      "Ġbottom": 4967,
      "Ġdomestic": 4968,
      "Ġdilig": 4969,
      "Ġlanguish": 4970,
      "Ġpeculiar": 4971,
      "Ġpetty": 4972,
      "Ġprotect": 4973,
      "Ġnaked": 4974,
      "Ġrejoyce": 4975,
      "ĠAegypt": 4976,
      "ĠHENRY": 4977,
      "ĠBehold": 4978,
      "ĠDalila": 4979,
      "ĠWoolf": 4980,
      "ĠWinchester": 4981,
      "ĠRoyal": 4982,
      "Ġsincerely": 4983,
      "ĠPhilosoph": 4984,
      "ĠShakespear": 4985,
      "Ġmonosyllables": 4986,
      "ĠMagistrates": 4987,
      "!)": 4988,
      "',": 4989,
      "'m": 4990,
      "),": 4991,
      ".)": 4992,
      ".,": 4993,
      "43": 4994,
      "49": 4995,
      "67": 4996,
      "71": 4997,
      "94": 4998,
      "97": 4999,
      ":--": 5000,
      "AH": 5001,
      "AW": 5002,
      "Ap": 5003,
      "Ang": 5004,
      "Acc": 5005,
      "Bin": 5006,
      "Bre": 5007,
      "Bea": 5008,
      "Bid": 5009,
      "Bro": 5010,
      "Best": 5011,
      "Bore": 5012,
      "Bring": 5013,
      "Bitter": 5014,
      "Bearing": 5015,
      "Brut": 5016,
      "BLES": 5017,
      "Because": 5018,
      "CT": 5019,
      "Cour": 5020,
      "Come": 5021,
      "Cyri": 5022,
      "Cosi": 5023,
      "Castle": 5024,
      "Di": 5025,
      "Des": 5026,
      "Dri": 5027,
      "Dang": 5028,
      "Diss": 5029,
      "Dev": 5030,
      "Dwell": 5031,
      "DER": 5032,
      "Didst": 5033,
      "Dishon": 5034,
      "Ear": 5035,
      "Ease": 5036,
      "Edition": 5037,
      "EHO": 5038,
      "Eye": 5039,
      "Fe": 5040,
      "Fly": 5041,
      "Fill": 5042,
      "Fall": 5043,
      "Fore": 5044,
      "Fool": 5045,
      "Favour": 5046,
      "Gn": 5047,
      "HN": 5048,
      "Hon": 5049,
      "High": 5050,
      "Home": 5051,
      "Happ": 5052,
      "HAT": 5053,
      "Happy": 5054,
      "Half": 5055,
      "HORACE": 5056,
      "IG": 5057,
      "IL": 5058,
      "Ith": 5059,
      "IES": 5060,
      "Idol": 5061,
      "Jud": 5062,
      "LO": 5063,
      "LY": 5064,
      "Lod": 5065,
      "Lay": 5066,
      "Light": 5067,
      "Lie": 5068,
      "List": 5069,
      "Lead": 5070,
      "Lab": 5071,
      "Life": 5072,
      "Lift": 5073,
      "LIS": 5074,
      "LORD": 5075,
      "Latin": 5076,
      "Living": 5077,
      "Mr": 5078,
      "Men": 5079,
      "Met": 5080,
      "Ment": 5081,
      "Mad": 5082,
      "Mee": 5083,
      "Make": 5084,
      "Move": 5085,
      "Mother": 5086,
      "Milton": 5087,
      "Nove": 5088,
      "None": 5089,
      "NING": 5090,
      "NET": 5091,
      "Oh": 5092,
      "Out": 5093,
      "OHN": 5094,
      "Pre": 5095,
      "Pri": 5096,
      "Prom": 5097,
      "Port": 5098,
      "Pull": 5099,
      "Prin": 5100,
      "Part": 5101,
      "Present": 5102,
      "Puts": 5103,
      "Res": 5104,
      "Ran": 5105,
      "Right": 5106,
      "Rose": 5107,
      "Rend": 5108,
      "Rough": 5109,
      "Reg": 5110,
      "Rob": 5111,
      "Reve": 5112,
      "Sea": 5113,
      "Sem": 5114,
      "Seas": 5115,
      "Self": 5116,
      "Sons": 5117,
      "Save": 5118,
      "SIR": 5119,
      "Summers": 5120,
      "TE": 5121,
      "Take": 5122,
      "Time": 5123,
      "Turn": 5124,
      "TON": 5125,
      "Times": 5126,
      "Touch": 5127,
      "Temper": 5128,
      "Us": 5129,
      "UPON": 5130,
      "Visit": 5131,
      "VAH": 5132,
      "Went": 5133,
      "WHAT": 5134,
      "XII": 5135,
      "XIII": 5136,
      "XIV": 5137,
      "XIX": 5138,
      "ald": 5139,
      "aal": 5140,
      "aver": 5141,
      "awn": 5142,
      "aild": 5143,
      "bd": 5144,
      "bil": 5145,
      "bus": 5146,
      "both": 5147,
      "batter": 5148,
      "cu": 5149,
      "cing": 5150,
      "ced": 5151,
      "cere": 5152,
      "cur": 5153,
      "cad": 5154,
      "cus": 5155,
      "cue": 5156,
      "cip": 5157,
      "come": 5158,
      "cover": 5159,
      "copy": 5160,
      "du": 5161,
      "des": 5162,
      "don": 5163,
      "dst": 5164,
      "del": 5165,
      "dain": 5166,
      "dist": 5167,
      "dens": 5168,
      "draw": 5169,
      "eth": 5170,
      "eph": 5171,
      "equ": 5172,
      "eels": 5173,
      "eople": 5174,
      "epping": 5175,
      "fed": 5176,
      "fast": 5177,
      "find": 5178,
      "found": 5179,
      "fts": 5180,
      "face": 5181,
      "friend": 5182,
      "frag": 5183,
      "famous": 5184,
      "first": 5185,
      "fric": 5186,
      "fax": 5187,
      "fixed": 5188,
      "gy": 5189,
      "get": 5190,
      "god": 5191,
      "gid": 5192,
      "gare": 5193,
      "gian": 5194,
      "gled": 5195,
      "girt": 5196,
      "here": 5197,
      "ham": 5198,
      "had": 5199,
      "hem": 5200,
      "held": 5201,
      "house": 5202,
      "hib": 5203,
      "ik": 5204,
      "ias": 5205,
      "iour": 5206,
      "iall": 5207,
      "ict": 5208,
      "iph": 5209,
      "ipp": 5210,
      "iable": 5211,
      "iction": 5212,
      "iena": 5213,
      "ju": 5214,
      "jur": 5215,
      "ky": 5216,
      "kly": 5217,
      "kind": 5218,
      "lt": 5219,
      "low": 5220,
      "lay": 5221,
      "lose": 5222,
      "lick": 5223,
      "lings": 5224,
      "love": 5225,
      "lian": 5226,
      "lave": 5227,
      "lov": 5228,
      "little": 5229,
      "lips": 5230,
      "lids": 5231,
      "mo": 5232,
      "mes": 5233,
      "men": 5234,
      "mind": 5235,
      "mine": 5236,
      "much": 5237,
      "mov": 5238,
      "mper": 5239,
      "making": 5240,
      "mbling": 5241,
      "nel": 5242,
      "nall": 5243,
      "nell": 5244,
      "nish": 5245,
      "nity": 5246,
      "nance": 5247,
      "neath": 5248,
      "nets": 5249,
      "oe": 5250,
      "oon": 5251,
      "oath": 5252,
      "occ": 5253,
      "oft": 5254,
      "oars": 5255,
      "oggs": 5256,
      "pet": 5257,
      "ply": 5258,
      "pent": 5259,
      "pers": 5260,
      "pell": 5261,
      "pake": 5262,
      "part": 5263,
      "pides": 5264,
      "perty": 5265,
      "rh": 5266,
      "ration": 5267,
      "sear": 5268,
      "saw": 5269,
      "sial": 5270,
      "tre": 5271,
      "tir": 5272,
      "tch": 5273,
      "tick": 5274,
      "tto": 5275,
      "tles": 5276,
      "tars": 5277,
      "times": 5278,
      "twixt": 5279,
      "ued": 5280,
      "ung": 5281,
      "ucc": 5282,
      "uilt": 5283,
      "uable": 5284,
      "unto": 5285,
      "uces": 5286,
      "ural": 5287,
      "ugl": 5288,
      "van": 5289,
      "vow": 5290,
      "ved": 5291,
      "var": 5292,
      "val": 5293,
      "vol": 5294,
      "vious": 5295,
      "vish": 5296,
      "vity": 5297,
      "wing": 5298,
      "wra": 5299,
      "wage": 5300,
      "weet": 5301,
      "watch": 5302,
      "ways": 5303,
      "xious": 5304,
      "yth": 5305,
      "yle": 5306,
      "yard": 5307,
      "yrann": 5308,
      "ygian": 5309,
      "zz": 5310,
      "zor": 5311,
      "zing": 5312,
      "Ġiv": 5313,
      "Ġrough": 5314,
      "Ġ--------------------------------": 5315,
      "ĠWhile": 5316,
      "Ġ----------------------------": 5317,
      "ths": 5318,
      "thia": 5319,
      "thors": 5320,
      "Ġthin": 5321,
      "Ġthorn": 5322,
      "Ġthred": 5323,
      "Ġthrown": 5324,
      "Ġthrows": 5325,
      "Ġthresh": 5326,
      "Ġthanks": 5327,
      "Ġthrice": 5328,
      "Ġaz": 5329,
      "Ġaer": 5330,
      "Ġapt": 5331,
      "Ġaire": 5332,
      "Ġagg": 5333,
      "Ġaverse": 5334,
      "ina": 5335,
      "inent": 5336,
      "inion": 5337,
      "inous": 5338,
      "inence": 5339,
      "inely": 5340,
      "inated": 5341,
      "inary": 5342,
      "Ġsea": 5343,
      "Ġsow": 5344,
      "Ġsut": 5345,
      "Ġsal": 5346,
      "Ġsly": 5347,
      "Ġsand": 5348,
      "Ġsnow": 5349,
      "Ġseas": 5350,
      "Ġsym": 5351,
      "Ġsia": 5352,
      "Ġsides": 5353,
      "Ġsize": 5354,
      "Ġsowr": 5355,
      "Ġsourse": 5356,
      "Ġsearch": 5357,
      "eron": 5358,
      "erate": 5359,
      "erish": 5360,
      "erity": 5361,
      "erries": 5362,
      "nds": 5363,
      "ndred": 5364,
      "Ġwth": 5365,
      "Ġwain": 5366,
      "Ġwight": 5367,
      "Ġwall": 5368,
      "Ġward": 5369,
      "Ġworn": 5370,
      "Ġwrin": 5371,
      "Ġwears": 5372,
      "Ġwip": 5373,
      "Ġwail": 5374,
      "Ġwily": 5375,
      "Ġwakes": 5376,
      "Ġwrest": 5377,
      "Ġwaste": 5378,
      "Ġwoes": 5379,
      "Ġwiles": 5380,
      "Ġwires": 5381,
      "Ġwolves": 5382,
      "Ġwinters": 5383,
      "Ġhed": 5384,
      "Ġhom": 5385,
      "Ġhous": 5386,
      "Ġhie": 5387,
      "Ġhang": 5388,
      "Ġhier": 5389,
      "Ġhook": 5390,
      "Ġhusband": 5391,
      "Ġhudd": 5392,
      "Ġow": 5393,
      "Ġori": 5394,
      "Ġoil": 5395,
      "Ġomit": 5396,
      "Ġobt": 5397,
      "Ġowe": 5398,
      "Ġomitted": 5399,
      "Ġomission": 5400,
      "Ġooz": 5401,
      "Ġonde": 5402,
      "reet": 5403,
      "requent": 5404,
      "oubl": 5405,
      "oubt": 5406,
      "Ġmar": 5407,
      "Ġmere": 5408,
      "Ġmort": 5409,
      "Ġmaz": 5410,
      "Ġmuse": 5411,
      "Ġmult": 5412,
      "Ġmask": 5413,
      "Ġmaking": 5414,
      "Ġmarriage": 5415,
      "Ġmoment": 5416,
      "Ġmillions": 5417,
      "ison": 5418,
      "isies": 5419,
      "isera": 5420,
      "Ġfed": 5421,
      "Ġfain": 5422,
      "Ġfence": 5423,
      "Ġfelt": 5424,
      "Ġfuri": 5425,
      "Ġfester": 5426,
      "Ġflew": 5427,
      "Ġfurious": 5428,
      "Ġfickle": 5429,
      "Ġbill": 5430,
      "Ġbord": 5431,
      "Ġbare": 5432,
      "Ġbab": 5433,
      "Ġbark": 5434,
      "Ġbrown": 5435,
      "Ġbrows": 5436,
      "Ġbays": 5437,
      "Ġborrow": 5438,
      "Ġbird": 5439,
      "Ġbolt": 5440,
      "Ġbereft": 5441,
      "Ġtor": 5442,
      "Ġtir": 5443,
      "Ġtam": 5444,
      "Ġtast": 5445,
      "Ġtres": 5446,
      "Ġtame": 5447,
      "Ġtun": 5448,
      "Ġtab": 5449,
      "Ġtap": 5450,
      "Ġtail": 5451,
      "Ġtale": 5452,
      "Ġtaint": 5453,
      "Ġtreat": 5454,
      "Ġtalk": 5455,
      "Ġturns": 5456,
      "Ġtrance": 5457,
      "Ġtaken": 5458,
      "eso": 5459,
      "esse": 5460,
      "essel": 5461,
      "esbian": 5462,
      "oned": 5463,
      "onishment": 5464,
      "orp": 5465,
      "orch": 5466,
      "orter": 5467,
      "orick": 5468,
      "orcer": 5469,
      "ati": 5470,
      "aten": 5471,
      "aters": 5472,
      "atick": 5473,
      "atona": 5474,
      "lling": 5475,
      "enc": 5476,
      "enu": 5477,
      "ened": 5478,
      "enom": 5479,
      "eness": 5480,
      "enus": 5481,
      "enem": 5482,
      "ences": 5483,
      "Ġdy": 5484,
      "Ġder": 5485,
      "Ġdal": 5486,
      "Ġdight": 5487,
      "Ġdrou": 5488,
      "Ġdaz": 5489,
      "Ġdign": 5490,
      "Ġdrag": 5491,
      "Ġdaring": 5492,
      "eams": 5493,
      "earied": 5494,
      "ĠĠĠĠĠĠĠĠĠĠĠĠĠĠĠĠĠĠĠĠĠĠĠĠĠĠĠĠĠĠĠĠĠĠĠĠĠĠĠĠĠĠĠ": 5495,
      "ĠĠĠĠĠĠĠĠĠĠĠĠĠĠĠĠĠĠĠĠĠĠĠĠĠĠĠĠĠĠĠĠĠĠĠĠĠĠĠĠĠĠĠĠĠ": 5496,
      "Ġcre": 5497,
      "Ġcle": 5498,
      "Ġcas": 5499,
      "Ġcun": 5500,
      "Ġcop": 5501,
      "Ġcull": 5502,
      "Ġcark": 5503,
      "Ġcred": 5504,
      "Ġceast": 5505,
      "Ġcaught": 5506,
      "Ġcoll": 5507,
      "Ġcrest": 5508,
      "Ġcater": 5509,
      "Ġcoin": 5510,
      "Ġcarri": 5511,
      "Ġcamp": 5512,
      "Ġcurs": 5513,
      "Ġcurb": 5514,
      "Ġcoward": 5515,
      "Ġcerto": 5516,
      "Ġcreep": 5517,
      "Ġcottage": 5518,
      "Ġlif": 5519,
      "Ġlose": 5520,
      "Ġlag": 5521,
      "Ġlower": 5522,
      "Ġlaz": 5523,
      "Ġlink": 5524,
      "Ġleasure": 5525,
      "Ġlining": 5526,
      "Ġpay": 5527,
      "Ġpent": 5528,
      "Ġpill": 5529,
      "Ġpain": 5530,
      "Ġpoy": 5531,
      "Ġpaw": 5532,
      "Ġpack": 5533,
      "Ġpair": 5534,
      "Ġprone": 5535,
      "Ġpowre": 5536,
      "Ġnod": 5537,
      "Ġnest": 5538,
      "Ġnine": 5539,
      "Ġnau": 5540,
      "Ġnelle": 5541,
      "Ġnuptial": 5542,
      "star": 5543,
      "stru": 5544,
      "stance": 5545,
      "stret": 5546,
      "stery": 5547,
      "stepping": 5548,
      "street": 5549,
      "inging": 5550,
      "Ġtore": 5551,
      "Ġtool": 5552,
      "Ġtomb": 5553,
      "ann": 5554,
      "anet": 5555,
      "anim": 5556,
      "anza": 5557,
      "anctu": 5558,
      "Ġinex": 5559,
      "Ġincid": 5560,
      "Ġincredible": 5561,
      "Ġinherit": 5562,
      "Than": 5563,
      "Those": 5564,
      "Thence": 5565,
      "Things": 5566,
      "Think": 5567,
      "Thither": 5568,
      "Threat": 5569,
      "Therfore": 5570,
      "owl": 5571,
      "owred": 5572,
      "edia": 5573,
      "edience": 5574,
      "edges": 5575,
      "edication": 5576,
      "omin": 5577,
      "itor": 5578,
      "itous": 5579,
      "itic": 5580,
      "itation": 5581,
      "itness": 5582,
      "arce": 5583,
      "arrow": 5584,
      "arrels": 5585,
      "Ġgust": 5586,
      "Ġgau": 5587,
      "Ġgames": 5588,
      "Ġgrat": 5589,
      "Ġgiov": 5590,
      "Ġgorgeous": 5591,
      "irl": 5592,
      "irm": 5593,
      "iring": 5594,
      "irable": 5595,
      "irmity": 5596,
      "cely": 5597,
      "leet": 5598,
      "leep": 5599,
      "lected": 5600,
      "Ġwhist": 5601,
      "Ġwhets": 5602,
      "Ġwhilst": 5603,
      "Ġwheels": 5604,
      "Ġwhirl": 5605,
      "set": 5606,
      "sell": 5607,
      "sembly": 5608,
      "sembl": 5609,
      "ĠInd": 5610,
      "ĠIles": 5611,
      "ĠInto": 5612,
      "chers": 5613,
      "chool": 5614,
      "choes": 5615,
      "chordon": 5616,
      "oty": 5617,
      "otent": 5618,
      "otous": 5619,
      "eter": 5620,
      "etic": 5621,
      "etime": 5622,
      "etatis": 5623,
      "etween": 5624,
      "Ġhab": 5625,
      "Ġhail": 5626,
      "Ġhainous": 5627,
      "rac": 5628,
      "ravail": 5629,
      "rama": 5630,
      "ĠSm": 5631,
      "ĠSore": 5632,
      "ĠSee": 5633,
      "ĠSist": 5634,
      "ĠSelf": 5635,
      "ĠSuch": 5636,
      "ĠSto": 5637,
      "ĠSome": 5638,
      "ĠSec": 5639,
      "ĠSav": 5640,
      "ĠSub": 5641,
      "ĠSands": 5642,
      "ĠSyl": 5643,
      "ĠSup": 5644,
      "ĠSAM": 5645,
      "ĠSupp": 5646,
      "ĠSkie": 5647,
      "ĠSummer": 5648,
      "ĠSiena": 5649,
      "ĠSisera": 5650,
      "ĠSorcer": 5651,
      "ĠSanctu": 5652,
      "ĠSchool": 5653,
      "utes": 5654,
      "uted": 5655,
      "uties": 5656,
      "eles": 5657,
      "elve": 5658,
      "elic": 5659,
      "elter": 5660,
      "elief": 5661,
      "eliest": 5662,
      "Ġwithal": 5663,
      "Ġwithstand": 5664,
      "rive": 5665,
      "Ġshre": 5666,
      "Ġshed": 5667,
      "Ġshell": 5668,
      "Ġshun": 5669,
      "Ġsheep": 5670,
      "Ġshake": 5671,
      "Ġshag": 5672,
      "Ġshears": 5673,
      "Ġshown": 5674,
      "Ġshatter": 5675,
      "Ġshroud": 5676,
      "Ġshuts": 5677,
      "Ġshorter": 5678,
      "Ġshelter": 5679,
      "earth": 5680,
      "earning": 5681,
      "earled": 5682,
      "ereus": 5683,
      "amy": 5684,
      "amins": 5685,
      "odies": 5686,
      "Ġstat": 5687,
      "Ġsting": 5688,
      "Ġstare": 5689,
      "Ġstart": 5690,
      "Ġstress": 5691,
      "Ġstock": 5692,
      "Ġstony": 5693,
      "Ġstaff": 5694,
      "Ġstops": 5695,
      "Ġsteam": 5696,
      "Ġstearing": 5697,
      "Ġren": 5698,
      "Ġrenow": 5699,
      "Ġrepl": 5700,
      "Ġreward": 5701,
      "Ġreins": 5702,
      "Ġrecks": 5703,
      "Ġrevel": 5704,
      "Ġeat": 5705,
      "Ġeight": 5706,
      "Ġeither": 5707,
      "Ġecho": 5708,
      "alent": 5709,
      "ality": 5710,
      "alians": 5711,
      "Ġbell": 5712,
      "Ġbegu": 5713,
      "iddy": 5714,
      "imm": 5715,
      "ims": 5716,
      "imate": 5717,
      "imps": 5718,
      "imney": 5719,
      "ayes": 5720,
      "urd": 5721,
      "urther": 5722,
      "asp": 5723,
      "ason": 5724,
      "asie": 5725,
      "asph": 5726,
      "asies": 5727,
      "asper": 5728,
      "verty": 5729,
      "rol": 5730,
      "rop": 5731,
      "rovers": 5732,
      "rocal": 5733,
      "adia": 5734,
      "Ġmyster": 5735,
      "Ġmystery": 5736,
      "Ġones": 5737,
      "Ġonward": 5738,
      "Ġmeed": 5739,
      "Ġnotice": 5740,
      "ĠLe": 5741,
      "ĠLight": 5742,
      "ĠLud": 5743,
      "ĠLiver": 5744,
      "ĠLook": 5745,
      "ĠLute": 5746,
      "ĠLoc": 5747,
      "ĠLover": 5748,
      "ĠLeasure": 5749,
      "ĠLamp": 5750,
      "ĠLAW": 5751,
      "ĠLesbian": 5752,
      "ĠLatona": 5753,
      "ĠLearning": 5754,
      "Whil": 5755,
      "estim": 5756,
      "estures": 5757,
      "Them": 5758,
      "ilest": 5759,
      "ilist": 5760,
      "ilian": 5761,
      "ained": 5762,
      "ĠPat": 5763,
      "ĠPear": 5764,
      "ĠProm": 5765,
      "ĠPag": 5766,
      "ĠPass": 5767,
      "ĠPens": 5768,
      "ĠPray": 5769,
      "ĠPalm": 5770,
      "ĠPatience": 5771,
      "ĠPAS": 5772,
      "ĠPomp": 5773,
      "ĠPeople": 5774,
      "Ġforrest": 5775,
      "Ġforfeit": 5776,
      "ĠAT": 5777,
      "ĠAy": 5778,
      "ĠAle": 5779,
      "ĠAct": 5780,
      "ĠApp": 5781,
      "ĠAcc": 5782,
      "ĠAsh": 5783,
      "ĠAbra": 5784,
      "ĠAires": 5785,
      "ĠAthen": 5786,
      "ĠAreth": 5787,
      "ĠAfric": 5788,
      "ighted": 5789,
      "ĠHa": 5790,
      "ĠHor": 5791,
      "ĠHam": 5792,
      "ĠHast": 5793,
      "ĠHind": 5794,
      "ĠHand": 5795,
      "ĠHag": 5796,
      "ĠHears": 5797,
      "ĠHec": 5798,
      "ĠHIS": 5799,
      "ĠHappy": 5800,
      "ĠHelm": 5801,
      "ĠHusband": 5802,
      "ĠHenry": 5803,
      "allenge": 5804,
      "ĠMer": 5805,
      "ĠMis": 5806,
      "ĠMor": 5807,
      "ĠMid": 5808,
      "ĠMist": 5809,
      "ĠMirth": 5810,
      "ĠMOR": 5811,
      "ĠMeasure": 5812,
      "ĠMAI": 5813,
      "ĠMasters": 5814,
      "ĠMantle": 5815,
      "ĠMurther": 5816,
      "Ġasunder": 5817,
      "Ġaspire": 5818,
      "ĠCH": 5819,
      "ĠCre": 5820,
      "ĠCat": 5821,
      "ĠCar": 5822,
      "ĠCell": 5823,
      "ĠCare": 5824,
      "ĠChe": 5825,
      "ĠCip": 5826,
      "ĠCock": 5827,
      "ĠCome": 5828,
      "ĠCouch": 5829,
      "ĠCarri": 5830,
      "ĠCounsel": 5831,
      "Ġallay": 5832,
      "romwell": 5833,
      "esso": 5834,
      "ĠGO": 5835,
      "ĠGard": 5836,
      "ĠGive": 5837,
      "ĠGray": 5838,
      "ĠGates": 5839,
      "ĠGener": 5840,
      "ĠGrove": 5841,
      "ĠGroves": 5842,
      "Ġorbs": 5843,
      "Ġissu": 5844,
      "eeks": 5845,
      "eeces": 5846,
      "rue": 5847,
      "rus": 5848,
      "rush": 5849,
      "ructed": 5850,
      "Ġvall": 5851,
      "Ġvail": 5852,
      "Ġvoc": 5853,
      "Ġvouch": 5854,
      "Ġvary": 5855,
      "Ġvaul": 5856,
      "Ġvoid": 5857,
      "Ġvulgar": 5858,
      "Ġvenom": 5859,
      "Ġvilest": 5860,
      "ctate": 5861,
      "Ġsole": 5862,
      "Ġsoil": 5863,
      "Ġsoild": 5864,
      "Ġsober": 5865,
      "Ġsofter": 5866,
      "Ġsoever": 5867,
      "Ġsollic": 5868,
      "ĠBE": 5869,
      "ĠBY": 5870,
      "ĠBr": 5871,
      "ĠBow": 5872,
      "ĠBed": 5873,
      "ĠBear": 5874,
      "ĠBee": 5875,
      "ĠBull": 5876,
      "ĠBoth": 5877,
      "ĠBoy": 5878,
      "ĠBatt": 5879,
      "ĠBridge": 5880,
      "ĠBays": 5881,
      "ĠBowre": 5882,
      "ĠBards": 5883,
      "ĠBird": 5884,
      "ĠBecause": 5885,
      "ĠBaal": 5886,
      "ĠBerries": 5887,
      "erscription": 5888,
      "usal": 5889,
      "uscan": 5890,
      "Ġherb": 5891,
      "Ġheroic": 5892,
      "Ġsped": 5893,
      "Ġsple": 5894,
      "Ġspect": 5895,
      "Ġspoil": 5896,
      "Ġsprung": 5897,
      "rouble": 5898,
      "---------": 5899,
      "Ġsubl": 5900,
      "Ġsumm": 5901,
      "Ġsustain": 5902,
      "Ġsuccess": 5903,
      "Offer": 5904,
      "ĠTur": 5905,
      "ĠTrin": 5906,
      "ĠTab": 5907,
      "ĠTap": 5908,
      "ĠTown": 5909,
      "ĠTyr": 5910,
      "ĠText": 5911,
      "ĠTongue": 5912,
      "ĠToward": 5913,
      "ĠTroy": 5914,
      "ĠTetra": 5915,
      "ĠTyrian": 5916,
      "ĠTHY": 5917,
      "ĠTIM": 5918,
      "ĠTyre": 5919,
      "ĠTravail": 5920,
      "elld": 5921,
      "elling": 5922,
      "ongs": 5923,
      "ongst": 5924,
      "ĠFre": 5925,
      "ĠFro": 5926,
      "ĠFate": 5927,
      "ĠFav": 5928,
      "ĠFOR": 5929,
      "ĠFountain": 5930,
      "ĠFAI": 5931,
      "ĠFestiv": 5932,
      "ĠForest": 5933,
      "ĠFleet": 5934,
      "resist": 5935,
      "Ġchear": 5936,
      "Ġchast": 5937,
      "Ġchide": 5938,
      "Ġchaste": 5939,
      "Ġchoic": 5940,
      "Ġchorus": 5941,
      "Ġchallenge": 5942,
      "Ġcheeks": 5943,
      "emm": 5944,
      "emin": 5945,
      "indic": 5946,
      "anta": 5947,
      "antic": 5948,
      "Ġunb": 5949,
      "Ġunth": 5950,
      "Ġunion": 5951,
      "Ġunif": 5952,
      "Ġunus": 5953,
      "Ġunbl": 5954,
      "Ġunable": 5955,
      "Ġunless": 5956,
      "Ġunarm": 5957,
      "Ġunsu": 5958,
      "Ġunrep": 5959,
      "Ġunlike": 5960,
      "Ġunknown": 5961,
      "Ġunchaste": 5962,
      "Ġunemph": 5963,
      "Ġunequ": 5964,
      "Ġungod": 5965,
      "Ġheed": 5966,
      "Ġheel": 5967,
      "Ġheere": 5968,
      "Ġheight": 5969,
      "Ġnov": 5970,
      "Ġnook": 5971,
      "isting": 5972,
      "istot": 5973,
      "istles": 5974,
      "ichor": 5975,
      "ĠOre": 5976,
      "ĠOld": 5977,
      "ĠOur": 5978,
      "ĠOak": 5979,
      "ĠOcc": 5980,
      "ĠOde": 5981,
      "ĠOmitted": 5982,
      "ĠOrac": 5983,
      "phet": 5984,
      "ĠEu": 5985,
      "ĠEv": 5986,
      "ĠEter": 5987,
      "ĠEns": 5988,
      "ĠEcl": 5989,
      "ĠEuri": 5990,
      "ĠEdition": 5991,
      "ĠEcho": 5992,
      "ĠENG": 5993,
      "ĠEpitaph": 5994,
      "andal": 5995,
      "atever": 5996,
      "Ġloy": 5997,
      "Ġloving": 5998,
      "quest": 5999,
      "quie": 6000,
      "quainted": 6001,
      "Ġking": 6002,
      "Ġkill": 6003,
      "Ġcomment": 6004,
      "Ġcomely": 6005,
      "Ġcomfort": 6006,
      "Ġlip": 6007,
      "Ġlips": 6008,
      "Ġliken": 6009,
      "Ġdol": 6010,
      "Ġdoct": 6011,
      "Ġdoings": 6012,
      "Ġdoff": 6013,
      "Ġdoors": 6014,
      "Ġblab": 6015,
      "Ġblaz": 6016,
      "Ġblows": 6017,
      "Ġblund": 6018,
      "Ġblithe": 6019,
      "Ġblasph": 6020,
      "oln": 6021,
      "olv": 6022,
      "olve": 6023,
      "olsom": 6024,
      "ulent": 6025,
      "ĠDi": 6026,
      "ĠDes": 6027,
      "ĠDow": 6028,
      "ĠDam": 6029,
      "ĠDun": 6030,
      "ĠDost": 6031,
      "ĠDeep": 6032,
      "ĠDone": 6033,
      "ĠDown": 6034,
      "ĠDale": 6035,
      "ĠDames": 6036,
      "ĠDungeon": 6037,
      "ĠDivine": 6038,
      "ĠDonna": 6039,
      "ĠDedication": 6040,
      "ĠDrama": 6041,
      "endeav": 6042,
      "endix": 6043,
      "Ġconcl": 6044,
      "Ġconject": 6045,
      "Ġconceiv": 6046,
      "Ġconvers": 6047,
      "Ġconven": 6048,
      "Ġconquer": 6049,
      "ics": 6050,
      "icient": 6051,
      "icament": 6052,
      "iceable": 6053,
      "icacy": 6054,
      "Infer": 6055,
      "ĠWit": 6056,
      "ĠWall": 6057,
      "ĠWild": 6058,
      "ĠWrit": 6059,
      "Ġfable": 6060,
      "Ġfarew": 6061,
      "Ġfaery": 6062,
      "Ġdeer": 6063,
      "Ġdeck": 6064,
      "Ġdefe": 6065,
      "Ġdefer": 6066,
      "Ġdeject": 6067,
      "Ġdebt": 6068,
      "Ġdeceive": 6069,
      "ĠGodlike": 6070,
      "pper": 6071,
      "arded": 6072,
      "rowle": 6073,
      "rowess": 6074,
      "rowns": 6075,
      "Ġplead": 6076,
      "Ġplots": 6077,
      "Ġpluck": 6078,
      "Ġplumes": 6079,
      "Ġplenty": 6080,
      "una": 6081,
      "unc": 6082,
      "uno": 6083,
      "ivid": 6084,
      "iveness": 6085,
      "olds": 6086,
      "ured": 6087,
      "osts": 6088,
      "ostroph": 6089,
      "Ġjo": 6090,
      "Ġflo": 6091,
      "Ġfling": 6092,
      "Ġflour": 6093,
      "Ġfloud": 6094,
      "ĠNow": 6095,
      "ĠNot": 6096,
      "ĠNect": 6097,
      "ĠNotes": 6098,
      "ĠNuptial": 6099,
      "ĠNereus": 6100,
      "ĠRain": 6101,
      "ĠRose": 6102,
      "ĠRep": 6103,
      "ĠRome": 6104,
      "ĠRev": 6105,
      "ĠRites": 6106,
      "Ġhears": 6107,
      "Ġhearse": 6108,
      "eadows": 6109,
      "Ġupward": 6110,
      "osure": 6111,
      "ospit": 6112,
      "Ġsaith": 6113,
      "Ġsaving": 6114,
      "Ġann": 6115,
      "Ġanon": 6116,
      "Ġanointed": 6117,
      "ĠThrough": 6118,
      "ĠThrone": 6119,
      "Ġsex": 6120,
      "Ġseed": 6121,
      "Ġsevere": 6122,
      "oples": 6123,
      "ounding": 6124,
      "ilement": 6125,
      "orno": 6126,
      "Ġglass": 6127,
      "Ġglade": 6128,
      "Ġglitter": 6129,
      "Ġglimmer": 6130,
      "Ġstreets": 6131,
      "Ġstretch": 6132,
      "Ġworm": 6133,
      "Ġwors": 6134,
      "Ġmanly": 6135,
      "Ġmanhood": 6136,
      "Ġmansion": 6137,
      "Ġmanner": 6138,
      "Ġusage": 6139,
      "Ġusurp": 6140,
      "Ġarri": 6141,
      "Ġarts": 6142,
      "Ġarray": 6143,
      "Ġexpos": 6144,
      "Ġexcess": 6145,
      "Ġexercise": 6146,
      "Ġraig": 6147,
      "Ġrains": 6148,
      "Ġalive": 6149,
      "Ġaloud": 6150,
      "Ġalthough": 6151,
      "Ġalway": 6152,
      "Ġaloof": 6153,
      "Ġamaz": 6154,
      "Ġamber": 6155,
      "Ġamiss": 6156,
      "Ġambit": 6157,
      "Ġgrew": 6158,
      "Ġgreedy": 6159,
      "Ġ1020": 6160,
      "Ġ1010": 6161,
      "icks": 6162,
      "ickly": 6163,
      "range": 6164,
      "Ġsworn": 6165,
      "Ġsweep": 6166,
      "Ġswart": 6167,
      "Ġswarm": 6168,
      "Ġenc": 6169,
      "Ġenmity": 6170,
      "Ġenameld": 6171,
      "Ġenroll": 6172,
      "Ġ1630": 6173,
      "Ġ1670": 6174,
      "athe": 6175,
      "others": 6176,
      "rinx": 6177,
      "Ġproperty": 6178,
      "abb": 6179,
      "abil": 6180,
      "about": 6181,
      "Ġabuse": 6182,
      "Ġwhereof": 6183,
      "Forget": 6184,
      "Ġseeks": 6185,
      "Ġclotted": 6186,
      "Ġruth": 6187,
      "Ġrust": 6188,
      "Ġruff": 6189,
      "uding": 6190,
      "uded": 6191,
      "ĠJaw": 6192,
      "ĠJoll": 6193,
      "Ġearst": 6194,
      "Ġearliest": 6195,
      "erton": 6196,
      "ertie": 6197,
      "ĠVers": 6198,
      "ĠVac": 6199,
      "ĠVertue": 6200,
      "ĠVales": 6201,
      "Ġrip": 6202,
      "Ġride": 6203,
      "Ġrife": 6204,
      "Ġrigg": 6205,
      "Ġrivi": 6206,
      "Ġripe": 6207,
      "Ġrills": 6208,
      "Ġrigid": 6209,
      "Ġriotous": 6210,
      "agle": 6211,
      "agion": 6212,
      "Ġdisse": 6213,
      "Ġdisson": 6214,
      "Ġdisapp": 6215,
      "Ġdispose": 6216,
      "ĠĠĠĠĠĠĠĠĠĠĠĠĠĠĠĠĠĠĠĠĠĠĠĠĠĠĠĠĠĠĠĠĠĠĠĠĠĠĠĠĠĠĠĠĠĠĠĠĠĠ": 6217,
      "Ġthereof": 6218,
      "Ġthereby": 6219,
      "Ġperple": 6220,
      "Ġpermit": 6221,
      "Ġperceiv": 6222,
      "Ġperceive": 6223,
      "Ġperdition": 6224,
      "Ġperpet": 6225,
      "arkle": 6226,
      "pled": 6227,
      "play": 6228,
      "asses": 6229,
      "assail": 6230,
      "ĠHeavenly": 6231,
      "aces": 6232,
      "acles": 6233,
      "acquainted": 6234,
      "blin": 6235,
      "Ġquire": 6236,
      "Ġquires": 6237,
      "Ġquench": 6238,
      "Ġselfe": 6239,
      "Ġweed": 6240,
      "Ġwept": 6241,
      "onsisten": 6242,
      "Ġgoodly": 6243,
      "Ġgoodnes": 6244,
      "Ġimper": 6245,
      "Ġtrump": 6246,
      "Ġoffend": 6247,
      "Ġofferd": 6248,
      "Ġoffering": 6249,
      "eeting": 6250,
      "Ġsliding": 6251,
      "Ġslumbring": 6252,
      "Ġslaver": 6253,
      "Ġvernall": 6254,
      "urnal": 6255,
      "Ġlonger": 6256,
      "ĠCha": 6257,
      "ĠChamber": 6258,
      "ONIST": 6259,
      "depart": 6260,
      "arting": 6261,
      "artial": 6262,
      "Ġwayes": 6263,
      "Ġpract": 6264,
      "ression": 6265,
      "iprocal": 6266,
      "neth": 6267,
      "shine": 6268,
      "shipt": 6269,
      "Ġadj": 6270,
      "Ġadmit": 6271,
      "Ġadded": 6272,
      "Ġscore": 6273,
      "Ġscant": 6274,
      "Ġscaly": 6275,
      "Ġscrivi": 6276,
      "Ġrobe": 6277,
      "Ġrobes": 6278,
      "Ġbreast": 6279,
      "aws": 6280,
      "Ġdespo": 6281,
      "Ġdesolation": 6282,
      "Ġletters": 6283,
      "Ġ620": 6284,
      "Ġ630": 6285,
      "Ġ640": 6286,
      "Ġ650": 6287,
      "Ġ610": 6288,
      "Ġ690": 6289,
      "Ġolder": 6290,
      "Ġdelay": 6291,
      "Ġdelicious": 6292,
      "Ġdelicacy": 6293,
      "Ġgrass": 6294,
      "Ġgraces": 6295,
      "Ġsomewhat": 6296,
      "Ġhonied": 6297,
      "Ġhonourable": 6298,
      "Ġbested": 6299,
      "Ġprecious": 6300,
      "Ġprefixed": 6301,
      "ails": 6302,
      "ailing": 6303,
      "ĠStones": 6304,
      "ĠStygian": 6305,
      "ĠStanza": 6306,
      "Ġsmite": 6307,
      "Ġsmart": 6308,
      "Ġsmiling": 6309,
      "Ġendeavour": 6310,
      "ginal": 6311,
      "ensive": 6312,
      "Ġappro": 6313,
      "Ġapproach": 6314,
      "Ġapplause": 6315,
      "Ġappendix": 6316,
      "Ġtwise": 6317,
      "Ġtwice": 6318,
      "Ġtrib": 6319,
      "Ġtriple": 6320,
      "Ġtricks": 6321,
      "Ġcalling": 6322,
      "Ġcalled": 6323,
      "Ġevents": 6324,
      "Ġsecular": 6325,
      "Ġglorifie": 6326,
      "ĠKid": 6327,
      "ĠKey": 6328,
      "ĠKnight": 6329,
      "ĠKING": 6330,
      "Ġfounded": 6331,
      "Ġfoundations": 6332,
      "Ġguid": 6333,
      "Ġguest": 6334,
      "Ġguided": 6335,
      "Ġunderstand": 6336,
      "Ġundergo": 6337,
      "Ġunderneath": 6338,
      "Ġremed": 6339,
      "Ġremit": 6340,
      "Ġremain": 6341,
      "Ġremove": 6342,
      "Ġremark": 6343,
      "Ġcontest": 6344,
      "Ġcontemn": 6345,
      "Ġcontrovers": 6346,
      "Ġcontagion": 6347,
      "Only": 6348,
      "iery": 6349,
      "erdon": 6350,
      "ancing": 6351,
      "Ġrepast": 6352,
      "Ġrepair": 6353,
      "Ġreprod": 6354,
      "Ġrepeated": 6355,
      "alem": 6356,
      "crib": 6357,
      "eca": 6358,
      "ecially": 6359,
      "ronounc": 6360,
      "ymen": 6361,
      "Ġreside": 6362,
      "Ġresign": 6363,
      "Ġresidence": 6364,
      "Ġrescue": 6365,
      "Ġresounding": 6366,
      "Ġjustly": 6367,
      "Ġjustice": 6368,
      "Ġpoco": 6369,
      "Ġpresage": 6370,
      "Ġpreserv": 6371,
      "Ġpreserved": 6372,
      "Ġreading": 6373,
      "ĠPhill": 6374,
      "ĠArch": 6375,
      "ĠAristot": 6376,
      "Ġsweets": 6377,
      "Ġsweetnes": 6378,
      "Ġfeat": 6379,
      "Ġleggi": 6380,
      "Ġ24": 6381,
      "Ġ230": 6382,
      "Ġ240": 6383,
      "Ġ250": 6384,
      "Ġ270": 6385,
      "Ġ280": 6386,
      "Ġ260": 6387,
      "Ġdeaths": 6388,
      "Ġdownward": 6389,
      "Ġcommits": 6390,
      "cled": 6391,
      "feu": 6392,
      "Ġhole": 6393,
      "Ġhovering": 6394,
      "Ġmisery": 6395,
      "Ġbringing": 6396,
      "Ġkeeping": 6397,
      "HEN": 6398,
      "HERE": 6399,
      "beg": 6400,
      "been": 6401,
      "iae": 6402,
      "iah": 6403,
      "Ġbetwixt": 6404,
      "ĠSonnet": 6405,
      "Ġattire": 6406,
      "Ġattended": 6407,
      "Ġattorno": 6408,
      "Beyond": 6409,
      "whom": 6410,
      "whose": 6411,
      "while": 6412,
      "whelm": 6413,
      "Ġbrok": 6414,
      "Ġbrothers": 6415,
      "Ġassert": 6416,
      "Ġasswage": 6417,
      "Ġsinners": 6418,
      "Ġsincere": 6419,
      "Ġpartic": 6420,
      "Ġpeacefull": 6421,
      "Ġretir": 6422,
      "Ġretire": 6423,
      "Ġretains": 6424,
      "Ġretired": 6425,
      "Ġretained": 6426,
      "Shakesp": 6427,
      "Shiph": 6428,
      "Ġ48": 6429,
      "Ġ420": 6430,
      "Ġ430": 6431,
      "Ġ440": 6432,
      "Ġ450": 6433,
      "Ġ410": 6434,
      "Ġ470": 6435,
      "Ġ480": 6436,
      "Ġ490": 6437,
      "Ġ460": 6438,
      "Ġtrade": 6439,
      "Ġtravels": 6440,
      "Ġdivide": 6441,
      "Ġpurity": 6442,
      "Ġpasses": 6443,
      "Ġpassing": 6444,
      "Ġpassions": 6445,
      "Ġpassages": 6446,
      "Ġgoddess": 6447,
      "ĠSpells": 6448,
      "Ġjoyous": 6449,
      "Ġimpious": 6450,
      "Ġimprison": 6451,
      "Ġimpression": 6452,
      "ociate": 6453,
      "Ġentra": 6454,
      "Ġentrance": 6455,
      "Ġentomb": 6456,
      "Ġsights": 6457,
      "Ġlowly": 6458,
      "ĠAmor": 6459,
      "ĠAmber": 6460,
      "ĠAmmon": 6461,
      "ĠAmbro": 6462,
      "Ġrightfull": 6463,
      "Quel": 6464,
      "Qual": 6465,
      "Quando": 6466,
      "Quickly": 6467,
      "Unmind": 6468,
      "Ġrh": 6469,
      "Ġrott": 6470,
      "Ġaffright": 6471,
      "Ġfeard": 6472,
      "enger": 6473,
      "ĠSuns": 6474,
      "forth": 6475,
      "Ġ300": 6476,
      "Ġ400": 6477,
      "Ġaccom": 6478,
      "Ġaccount": 6479,
      "Ġsilk": 6480,
      "Ġwait": 6481,
      "Ġwaight": 6482,
      "Ġwavering": 6483,
      "Ġwinding": 6484,
      "Ġhunt": 6485,
      "Ġhugg": 6486,
      "Ġhundred": 6487,
      "Ġfriendship": 6488,
      "atcht": 6489,
      "Ġdoune": 6490,
      "Ġpeer": 6491,
      "Ġpeoples": 6492,
      "Ġprinci": 6493,
      "Ġprinters": 6494,
      "Ġintrod": 6495,
      "Ġreveng": 6496,
      "Ġbeheld": 6497,
      "Ġservile": 6498,
      "XXI": 6499,
      "nesse": 6500,
      "Ġ520": 6501,
      "Ġ530": 6502,
      "Ġ540": 6503,
      "Ġ550": 6504,
      "Ġ510": 6505,
      "Ġ570": 6506,
      "Ġ580": 6507,
      "Ġ590": 6508,
      "Ġ560": 6509,
      "Ġ820": 6510,
      "Ġ830": 6511,
      "Ġ840": 6512,
      "Ġ850": 6513,
      "Ġ870": 6514,
      "Ġ890": 6515,
      "Ġ860": 6516,
      "Ġ920": 6517,
      "Ġ930": 6518,
      "Ġ940": 6519,
      "Ġ950": 6520,
      "Ġ910": 6521,
      "Ġ970": 6522,
      "Ġ980": 6523,
      "Ġ990": 6524,
      "Ġ960": 6525,
      "Ġsouls": 6526,
      "Ġhumm": 6527,
      "Ġhumours": 6528,
      "Ġhumane": 6529,
      "Ġheaviest": 6530,
      "Ġfals": 6531,
      "Ġdeepest": 6532,
      "Ġprivate": 6533,
      "Ġprivil": 6534,
      "ĠPole": 6535,
      "meil": 6536,
      "notes": 6537,
      "Ġ320": 6538,
      "Ġ330": 6539,
      "Ġ340": 6540,
      "Ġ350": 6541,
      "Ġ310": 6542,
      "Ġ370": 6543,
      "Ġ380": 6544,
      "Ġ390": 6545,
      "Ġ360": 6546,
      "Ġ720": 6547,
      "Ġ730": 6548,
      "Ġ740": 6549,
      "Ġ750": 6550,
      "Ġ710": 6551,
      "Ġ770": 6552,
      "Ġ780": 6553,
      "Ġ790": 6554,
      "Ġawa": 6555,
      "Ġawe": 6556,
      "Ġsorcer": 6557,
      "Ġsurc": 6558,
      "Ġsurm": 6559,
      "Ġsurfet": 6560,
      "Ġfallacious": 6561,
      "Ġcareer": 6562,
      "Ġcareful": 6563,
      "Ġcareless": 6564,
      "rides": 6565,
      "Ġemb": 6566,
      "Ġemploy": 6567,
      "Ġeminent": 6568,
      "ĠHerb": 6569,
      "ĠHeret": 6570,
      "ĠHermes": 6571,
      "ĠMany": 6572,
      "Ġneedst": 6573,
      "Ġconsent": 6574,
      "Ġconsolation": 6575,
      "Ġconsider": 6576,
      "Ġ1641": 6577,
      "ĠPhilistine": 6578,
      "Comm": 6579,
      "ESS": 6580,
      "ESENT": 6581,
      "Stre": 6582,
      "Stand": 6583,
      "Strong": 6584,
      "event": 6585,
      "Ġmix": 6586,
      "ontrou": 6587,
      "elty": 6588,
      "alking": 6589,
      "Ġconfine": 6590,
      "ĠIsraels": 6591,
      "Ġ500": 6592,
      "Ġdistra": 6593,
      "Ġdistill": 6594,
      "Ġdistance": 6595,
      "Ġdistinct": 6596,
      "Ġinfamous": 6597,
      "Ġinfirmity": 6598,
      "Ġinfamy": 6599,
      "Therefore": 6600,
      "Thereby": 6601,
      "ĠAlb": 6602,
      "ĠAlp": 6603,
      "ĠAlpheus": 6604,
      "ĠAltars": 6605,
      "Ġvii": 6606,
      "Ġsolemnly": 6607,
      "Ġsuppli": 6608,
      "ĠEarl": 6609,
      "Ġcomply": 6610,
      "Ġcompare": 6611,
      "Ġcompass": 6612,
      "Ġcomparing": 6613,
      "Ġflowr": 6614,
      "Ġflowre": 6615,
      "Ġflowres": 6616,
      "ĠVirginity": 6617,
      "Ġillustrious": 6618,
      "Ġsounds": 6619,
      "Ġwarrant": 6620,
      "Ġwanting": 6621,
      "Ġbespake": 6622,
      "Ġbids": 6623,
      "atters": 6624,
      "Ġparl": 6625,
      "Ġstraight": 6626,
      "Ġstrains": 6627,
      "ĠLaws": 6628,
      "ĠAsk": 6629,
      "ĠAssembly": 6630,
      "Ġcheck": 6631,
      "Ġcheif": 6632,
      "Ġdefend": 6633,
      "Ġdefiance": 6634,
      "Ġjudg": 6635,
      "Ġjudges": 6636,
      "Ġfollowing": 6637,
      "Ġ600": 6638,
      "izon": 6639,
      "ized": 6640,
      "Ġiii": 6641,
      "Ġwomen": 6642,
      "Ġhelm": 6643,
      "Ġtells": 6644,
      "Ġtransport": 6645,
      "Ġdaies": 6646,
      "Ġdawn": 6647,
      "Ġdaign": 6648,
      "Ġlayes": 6649,
      "Ġloudly": 6650,
      "Ġinterest": 6651,
      "Ġinterpose": 6652,
      "Ġinternal": 6653,
      "ĠAuthors": 6654,
      "Ġamongst": 6655,
      "1653": 6656,
      "ibly": 6657,
      "ibus": 6658,
      "Ġwisard": 6659,
      "Ġwisely": 6660,
      "Ġmetric": 6661,
      "Ġmeaning": 6662,
      "Ġboist": 6663,
      "Ġboots": 6664,
      "Ġbeauties": 6665,
      "Ġbede": 6666,
      "Ġleaden": 6667,
      "Ġhappen": 6668,
      "Ġhappiest": 6669,
      "ĠSweet": 6670,
      "ĠSwains": 6671,
      "ĠPrivate": 6672,
      "ĠProv": 6673,
      "ĠMusic": 6674,
      "Ġspeedy": 6675,
      "Ġsubdu": 6676,
      "Ġchariot": 6677,
      "Ġuncon": 6678,
      "Ġuncontrou": 6679,
      "Ġfavours": 6680,
      "Ġrunning": 6681,
      "ĠStarr": 6682,
      "Ġpresenting": 6683,
      "Ġpresented": 6684,
      "ĠEarths": 6685,
      "Ġsleek": 6686,
      "Ġwrote": 6687,
      "Ġharms": 6688,
      "Ġharbour": 6689,
      "Ġharbinger": 6690,
      "Ġbowres": 6691,
      "Ġbelief": 6692,
      "Ġbelongs": 6693,
      "Ġinside": 6694,
      "Ġinsult": 6695,
      "Ġinsolence": 6696,
      "Ġgentl": 6697,
      "Ġstrive": 6698,
      "ĠLyric": 6699,
      "Ġforgo": 6700,
      "Ġforgery": 6701,
      "Ġforgiveness": 6702,
      "Ġtrusted": 6703,
      "ĠKingly": 6704,
      "ERS": 6705,
      "exts": 6706,
      "ratitude": 6707,
      "ucing": 6708,
      "ucent": 6709,
      "Ġope": 6710,
      "Ġopenly": 6711,
      "Ġopinion": 6712,
      "Ġdropt": 6713,
      "Ġdropping": 6714,
      "Ġdrooping": 6715,
      "Ġdwells": 6716,
      "Ġdwellings": 6717,
      "Ġlisted": 6718,
      "etta": 6719,
      "etting": 6720,
      "Ġsoftly": 6721,
      "ĠTragic": 6722,
      "ĠFlute": 6723,
      "Ġbreaks": 6724,
      "eousness": 6725,
      "olet": 6726,
      "spread": 6727,
      "ĠUr": 6728,
      "ĠUpon": 6729,
      "ĠUPON": 6730,
      "Ġerst": 6731,
      "Ġairy": 6732,
      "Ġmodest": 6733,
      "Ġmoderate": 6734,
      "Ġmiddle": 6735,
      "Ġlawful": 6736,
      "Ġpastoral": 6737,
      "Ġindivid": 6738,
      "Ġinvok": 6739,
      "Ġinvinc": 6740,
      "Ġgroan": 6741,
      "Ġgroves": 6742,
      "Ġgross": 6743,
      "ĠItalians": 6744,
      "Ġrecord": 6745,
      "Ġrecover": 6746,
      "Ġreconc": 6747,
      "Ġreciprocal": 6748,
      "Ġredoubl": 6749,
      "ĠPlat": 6750,
      "ĠAiry": 6751,
      "Ġsufficient": 6752,
      "ĠOrgan": 6753,
      "Ġdevice": 6754,
      "Ġdevours": 6755,
      "Ġarmes": 6756,
      "XVI": 6757,
      "XVII": 6758,
      "XVIII": 6759,
      "aphim": 6760,
      "doms": 6761,
      "Ġ700": 6762,
      "Ġ800": 6763,
      "Ġharmonious": 6764,
      "Ġfraught": 6765,
      "Ġfurder": 6766,
      "Ġdreaded": 6767,
      "Ġdreadful": 6768,
      "Ġdreadfull": 6769,
      "Ġcasts": 6770,
      "ĠScot": 6771,
      "ĠComm": 6772,
      "ĠCompos": 6773,
      "Ġvaliant": 6774,
      "Ġchiefest": 6775,
      "Ġunfortun": 6776,
      "Ġunfinish": 6777,
      "Ġblessings": 6778,
      "Ġblackest": 6779,
      "Ġdecay": 6780,
      "Ġdeceas": 6781,
      "Ġdecree": 6782,
      "Ġdecides": 6783,
      "Ġriddle": 6784,
      "Ġdoubtful": 6785,
      "Already": 6786,
      "Ġsonnets": 6787,
      "Ġsisters": 6788,
      "Ġwatchful": 6789,
      "Ġmonument": 6790,
      "Ġmonarch": 6791,
      "Ġmusical": 6792,
      "Ġfancies": 6793,
      "Ġbraver": 6794,
      "Ġterf": 6795,
      "Ġterm": 6796,
      "Ġterror": 6797,
      "Ġtroubled": 6798,
      "Ġcup": 6799,
      "Ġcruelty": 6800,
      "Ġcrystal": 6801,
      "ĠIdolatrous": 6802,
      "Ġrequire": 6803,
      "Ġrequite": 6804,
      "Ġbegun": 6805,
      "ĠApril": 6806,
      "Ġ1270": 6807,
      "ĠMargare": 6808,
      "Ġvowel": 6809,
      "Ġunwary": 6810,
      "Ġunworth": 6811,
      "Ġunweeting": 6812,
      "Ġblissful": 6813,
      "Ġplaying": 6814,
      "Ġextreme": 6815,
      "Ġprayer": 6816,
      "Ġprayers": 6817,
      "Ġafflicted": 6818,
      "Anno": 6819,
      "Goddess": 6820,
      "SONNET": 6821,
      "mans": 6822,
      "manuscript": 6823,
      "obson": 6824,
      "point": 6825,
      "Ġ900": 6826,
      "Ġwinged": 6827,
      "Ġobvious": 6828,
      "Ġobedience": 6829,
      "Ġmai": 6830,
      "Ġmoves": 6831,
      "Ġfruits": 6832,
      "Ġfrustrate": 6833,
      "Ġtrembling": 6834,
      "Ġincessant": 6835,
      "Ġincrease": 6836,
      "Ġinconsisten": 6837,
      "Ġinchanter": 6838,
      "Ġinchanted": 6839,
      "Ġstrana": 6840,
      "ĠCountry": 6841,
      "ĠGrace": 6842,
      "Ġconstant": 6843,
      "aunted": 6844,
      "Ġ1000": 6845,
      "Ġprofan": 6846,
      "Ġprofest": 6847,
      "Ġprofane": 6848,
      "Ġviewles": 6849,
      "ANE": 6850,
      "ANS": 6851,
      "ARCA": 6852,
      "Two": 6853,
      "Twill": 6854,
      "Twixt": 6855,
      "pitious": 6856,
      "Ġinglorious": 6857,
      "Ġingrateful": 6858,
      "Ġingratitude": 6859,
      "thority": 6860,
      "Ġsenses": 6861,
      "Ġwearied": 6862,
      "Ġmarks": 6863,
      "Ġfetter": 6864,
      "Ġdirect": 6865,
      "Ġlavers": 6866,
      "Ġinwardly": 6867,
      "Ġhairs": 6868,
      "Ġhairy": 6869,
      "Ġundert": 6870,
      "Ġbends": 6871,
      "Ġfortitude": 6872,
      "ĠAnch": 6873,
      "ĠAttick": 6874,
      "ĠHarp": 6875,
      "ĠHarbinger": 6876,
      "ĠHarapha": 6877,
      "ĠMonument": 6878,
      "Ġvanity": 6879,
      "umphing": 6880,
      "Ġexpress": 6881,
      "Ġexpiate": 6882,
      "Ġprovok": 6883,
      "Ġdispleasure": 6884,
      "Ġpretence": 6885,
      "Ġpretended": 6886,
      "Ġprevented": 6887,
      "Ġjudgement": 6888,
      "Ġwomans": 6889,
      "Ġcorrect": 6890,
      "Ġcorrected": 6891,
      "Ġcorrects": 6892,
      "Ġdifference": 6893,
      "ITY": 6894,
      "Perche": 6895,
      "Swift": 6896,
      "affad": 6897,
      "longs": 6898,
      "Ġoppose": 6899,
      "Ġobserve": 6900,
      "Ġflying": 6901,
      "Ġbarr": 6902,
      "Ġbarbar": 6903,
      "Ġburdens": 6904,
      "Ġtryal": 6905,
      "Ġinstead": 6906,
      "Ġinstinct": 6907,
      "Ġinstructed": 6908,
      "second": 6909,
      "secrated": 6910,
      "Ġhabitation": 6911,
      "Ġrefra": 6912,
      "Ġrefresh": 6913,
      "ashion": 6914,
      "Ġyields": 6915,
      "Ġyielded": 6916,
      "ĠTribes": 6917,
      "Ġfailing": 6918,
      "Ġdegra": 6919,
      "Ġdegree": 6920,
      "Ġdegener": 6921,
      "Ġ1634": 6922,
      "Ġ1638": 6923,
      "Ġdiscern": 6924,
      "Ġdiscover": 6925,
      "Ġdeserts": 6926,
      "ĠInfancy": 6927,
      "Ġemphatic": 6928,
      "Ġdefenceless": 6929,
      "mmed": 6930,
      "undant": 6931,
      "Ġveil": 6932,
      "Ġwedded": 6933,
      "Ġwitnes": 6934,
      "Ġwoods": 6935,
      "Ġhurl": 6936,
      "represent": 6937,
      "Ġmalice": 6938,
      "Ġfinal": 6939,
      "Ġfrolick": 6940,
      "Ġfondly": 6941,
      "Ġdamn": 6942,
      "Ġcolours": 6943,
      "Ġlimits": 6944,
      "Ġlimbs": 6945,
      "Ġpitch": 6946,
      "Ġpunctu": 6947,
      "ĠSphears": 6948,
      "ĠLawn": 6949,
      "ĠHostile": 6950,
      "ĠMagic": 6951,
      "ĠGiants": 6952,
      "rudging": 6953,
      "Ġvolse": 6954,
      "Ġchildren": 6955,
      "ĠElm": 6956,
      "Ġlibertie": 6957,
      "Ġblasted": 6958,
      "ummets": 6959,
      "ĠReign": 6960,
      "ĠTherefore": 6961,
      "Ġabsent": 6962,
      "Ġabsence": 6963,
      "Ġabsurd": 6964,
      "Ġfoolish": 6965,
      "Ġaddrest": 6966,
      "Ġcontemptible": 6967,
      "Ġsufferings": 6968,
      "Ġreasonings": 6969,
      "Ġacceptable": 6970,
      "Expect": 6971,
      "Scarce": 6972,
      "herb": 6973,
      "iii": 6974,
      "jesty": 6975,
      "Ġrowl": 6976,
      "Ġsignes": 6977,
      "Ġsatisfie": 6978,
      "Ġwrongs": 6979,
      "Ġminor": 6980,
      "Ġmutable": 6981,
      "Ġmutual": 6982,
      "Ġmistook": 6983,
      "Ġmassy": 6984,
      "Ġmoving": 6985,
      "Ġbride": 6986,
      "Ġbrief": 6987,
      "Ġbranching": 6988,
      "Ġbattail": 6989,
      "Ġdetra": 6990,
      "Ġdrive": 6991,
      "Ġdreams": 6992,
      "Ġcaus": 6993,
      "Ġcooling": 6994,
      "Ġcaptiv": 6995,
      "Ġcaptive": 6996,
      "Ġcaptivity": 6997,
      "Ġlamentation": 6998,
      "Ġpopol": 6999,
      "Ġpopular": 7000,
      "Ġwheron": 7001,
      "Ġwherunto": 7002,
      "Ġreceived": 7003,
      "Ġbefall": 7004,
      "Ġbefriend": 7005,
      "assembly": 7006,
      "ĠAdv": 7007,
      "ĠHydra": 7008,
      "ĠCloud": 7009,
      "ĠGentle": 7010,
      "ĠBarn": 7011,
      "ĠTrees": 7012,
      "ĠTrent": 7013,
      "ĠTimbre": 7014,
      "ĠEbon": 7015,
      "Ġknock": 7016,
      "Ġdebas": 7017,
      "Ġplanted": 7018,
      "Ġenclin": 7019,
      "Ġencline": 7020,
      "Ġenclos": 7021,
      "Ġfooting": 7022,
      "Ġimbru": 7023,
      "Ġdespis": 7024,
      "Ġdespair": 7025,
      "Ġdescends": 7026,
      "Ġdescended": 7027,
      "Ġaffects": 7028,
      "Ġsilently": 7029,
      "Ġmixture": 7030,
      "Ġdestroyer": 7031,
      "Ġpossession": 7032,
      "Ġindignation": 7033,
      "Ġconstrains": 7034,
      "Ġexcellence": 7035,
      "Ġmeditation": 7036,
      "ĠReligious": 7037,
      "Ġemphasize": 7038,
      "Ġmurmur": 7039,
      "Canz": 7040,
      "Deceiv": 7041,
      "Disp": 7042,
      "New": 7043,
      "fluous": 7044,
      "folded": 7045,
      "headed": 7046,
      "pressive": 7047,
      "ĠUnivers": 7048,
      "Ġastray": 7049,
      "Ġastonishment": 7050,
      "Ġsorts": 7051,
      "Ġsighing": 7052,
      "Ġhealing": 7053,
      "Ġmerit": 7054,
      "Ġmerry": 7055,
      "Ġfuel": 7056,
      "Ġfixed": 7057,
      "Ġbusie": 7058,
      "Ġbusiness": 7059,
      "Ġdwelt": 7060,
      "Ġdemure": 7061,
      "Ġdealt": 7062,
      "Ġdances": 7063,
      "Ġdancing": 7064,
      "Ġdainty": 7065,
      "Ġdainties": 7066,
      "Ġlodg": 7067,
      "Ġlodge": 7068,
      "Ġhaunted": 7069,
      "ĠSlave": 7070,
      "ĠSlaves": 7071,
      "ĠSaturns": 7072,
      "Ġstudies": 7073,
      "ĠPsalms": 7074,
      "ĠPipe": 7075,
      "ĠPipes": 7076,
      "Ġforbidden": 7077,
      "Ġashes": 7078,
      "ĠGolden": 7079,
      "uskind": 7080,
      "Ġspeeches": 7081,
      "ĠWoman": 7082,
      "ĠWindes": 7083,
      "Ġplaces": 7084,
      "Ġprophetic": 7085,
      "Ġdescent": 7086,
      "Ġdescry": 7087,
      "ĠArcady": 7088,
      "ĠArcadia": 7089,
      "ĠArmies": 7090,
      "Ġmischance": 7091,
      "Ġbrooks": 7092,
      "Ġwriting": 7093,
      "Ġcourteous": 7094,
      "Ġcourtesie": 7095,
      "Ġtemperance": 7096,
      "Ġtreason": 7097,
      "Ġtreasure": 7098,
      "ĠCynthia": 7099,
      "ĠCynosure": 7100,
      "ĠEnemy": 7101,
      "Ġarguments": 7102,
      "Arm": 7103,
      "Benighted": 7104,
      "Depart": 7105,
      "ELL": 7106,
      "Fearless": 7107,
      "Guard": 7108,
      "Pluck": 7109,
      "Regain": 7110,
      "Sleep": 7111,
      "Sleek": 7112,
      "Trip": 7113,
      "Triumphing": 7114,
      "Warble": 7115,
      "Warbl": 7116,
      "breaker": 7117,
      "pathize": 7118,
      "xxx": 7119,
      "ĠZeb": 7120,
      "therefore": 7121,
      "Ġsusp": 7122,
      "Ġsuspect": 7123,
      "Ġwreaths": 7124,
      "Ġoblig": 7125,
      "Ġmiracle": 7126,
      "Ġmagnanim": 7127,
      "Ġfleecy": 7128,
      "Ġbereav": 7129,
      "Ġbruis": 7130,
      "Ġbounties": 7131,
      "Ġbounteous": 7132,
      "Ġtumult": 7133,
      "Ġdeaf": 7134,
      "Ġdearest": 7135,
      "Ġdanger": 7136,
      "Ġcovert": 7137,
      "Ġpuo": 7138,
      "Ġpaths": 7139,
      "anthus": 7140,
      "seemed": 7141,
      "seemly": 7142,
      "ĠSyrinx": 7143,
      "ĠSenat": 7144,
      "ĠSilence": 7145,
      "ĠSevern": 7146,
      "ĠServants": 7147,
      "ĠSepulcher": 7148,
      "Ġstarry": 7149,
      "Ġstruck": 7150,
      "Ġstruct": 7151,
      "Ġmeerly": 7152,
      "ĠPRESENT": 7153,
      "ĠPerhaps": 7154,
      "ĠPauls": 7155,
      "ĠHonour": 7156,
      "ĠMatron": 7157,
      "ĠMitre": 7158,
      "ĠContempl": 7159,
      "ĠGreen": 7160,
      "ĠGreek": 7161,
      "Ġvillager": 7162,
      "ĠBlind": 7163,
      "ĠBabe": 7164,
      "ĠBeasts": 7165,
      "Ġsupreme": 7166,
      "Ġchanges": 7167,
      "Ġunexpressive": 7168,
      "Ġnecessity": 7169,
      "Ġnecessary": 7170,
      "ĠOxford": 7171,
      "ĠEgypt": 7172,
      "ĠEgerton": 7173,
      "ĠExercise": 7174,
      "ĠWeeds": 7175,
      "ĠWarriour": 7176,
      "Ġfacsim": 7177,
      "Ġdeclare": 7178,
      "Ġjoints": 7179,
      "Ġjealousie": 7180,
      "ĠRighteousness": 7181,
      "Ġdisposal": 7182,
      "Ġdisposition": 7183,
      "Ġimplore": 7184,
      "Ġpraiers": 7185,
      "Ġpreferring": 7186,
      "Ġcontrary": 7187,
      "Ġcheerfull": 7188,
      "Ġodiously": 7189,
      "Ġfrequently": 7190,
      "Ġstrictly": 7191,
      "Ġstrictest": 7192,
      "Ġpublished": 7193,
      "ĠTrumpets": 7194,
      "Ġacquaint": 7195,
      "Ġtroubles": 7196,
      "Ġmajesty": 7197,
      "Ġmajestick": 7198,
      "Ġhurtfull": 7199,
      "Confess": 7200,
      "Ġcalamities": 7201,
      "Ġcalamitous": 7202,
      "ĠSacrifice": 7203,
      "Ġrebellions": 7204,
      "Ġenthroned": 7205,
      "CHEST": 7206,
      "Contempt": 7207,
      "Daily": 7208,
      "Draws": 7209,
      "Gentle": 7210,
      "ICK": 7211,
      "Nightly": 7212,
      "Nymphs": 7213,
      "Philist": 7214,
      "cinal": 7215,
      "maids": 7216,
      "urable": 7217,
      "Ġzeal": 7218,
      "Ġesp": 7219,
      "Ġessence": 7220,
      "Ġauthority": 7221,
      "Ġavoid": 7222,
      "Ġwidow": 7223,
      "Ġhinders": 7224,
      "Ġmeasur": 7225,
      "Ġmagick": 7226,
      "Ġmercies": 7227,
      "ispering": 7228,
      "Ġfingers": 7229,
      "Ġfuture": 7230,
      "Ġfuner": 7231,
      "Ġfrighted": 7232,
      "Ġfestivals": 7233,
      "Ġbanish": 7234,
      "Ġbleed": 7235,
      "Ġburial": 7236,
      "Ġtangl": 7237,
      "Ġturbulent": 7238,
      "Ġcensure": 7239,
      "Ġlordly": 7240,
      "Ġpiled": 7241,
      "Ġinferior": 7242,
      "Ġiniquity": 7243,
      "Ġgeneral": 7244,
      "ceeded": 7245,
      "ĠSeraphim": 7246,
      "elieve": 7247,
      "ribution": 7248,
      "Ġuphold": 7249,
      "Ġstoop": 7250,
      "Ġstroke": 7251,
      "Ġstubble": 7252,
      "Ġrecompense": 7253,
      "ĠLoves": 7254,
      "ĠLucina": 7255,
      "ĠLATIN": 7256,
      "ĠPersons": 7257,
      "ĠPredicament": 7258,
      "ĠAGONIST": 7259,
      "ĠAgainst": 7260,
      "ĠHesper": 7261,
      "ĠHerds": 7262,
      "ĠMajesty": 7263,
      "ĠMASK": 7264,
      "ĠCrystall": 7265,
      "ĠCowslips": 7266,
      "ĠCounce": 7267,
      "ĠColledge": 7268,
      "ĠCupid": 7269,
      "Ġallowance": 7270,
      "Ġornament": 7271,
      "Ġvigorous": 7272,
      "Ġvapours": 7273,
      "ĠBondage": 7274,
      "ĠBacchus": 7275,
      "ĠTorches": 7276,
      "ĠTraytor": 7277,
      "Ġunshorn": 7278,
      "ĠEthi": 7279,
      "ĠEurope": 7280,
      "ĠElysian": 7281,
      "Ġlikest": 7282,
      "ĠDaisies": 7283,
      "ĠDiana": 7284,
      "ĠWisdoms": 7285,
      "Ġdeceitful": 7286,
      "unkets": 7287,
      "Ġflattering": 7288,
      "Ġfleshly": 7289,
      "ĠREA": 7290,
      "ĠRobber": 7291,
      "Ġsafely": 7292,
      "Ġglistring": 7293,
      "Ġargues": 7294,
      "Ġrarely": 7295,
      "Ġamends": 7296,
      "Ġproportion": 7297,
      "Ġprosperous": 7298,
      "Forsook": 7299,
      "Ġclustring": 7300,
      "Ġrumour": 7301,
      "Ġimitated": 7302,
      "Ġverdit": 7303,
      "Ġgraciously": 7304,
      "Ġprepare": 7305,
      "Ġapprehend": 7306,
      "Ġremorse": 7307,
      "Ġcontinues": 7308,
      "Ġassaults": 7309,
      "Ġpursuit": 7310,
      "Ġimportant": 7311,
      "ĠAmaranthus": 7312,
      "Ġcounterfeit": 7313,
      "Ġembrace": 7314,
      "ESTIES": 7315,
      "Ġinflicted": 7316,
      "Ġtranslucent": 7317,
      "Ġwritten": 7318,
      "Ġrelieves": 7319,
      "ĠPluto": 7320,
      "Ġinnumerable": 7321,
      "Ġunparallel": 7322,
      "Ġexceeding": 7323,
      "Ġsensualty": 7324,
      "Ġvanquisht": 7325,
      "ĠPalestine": 7326,
      "Smooth": 7327,
      "Ġdetermining": 7328,
      "Ġthreatnings": 7329,
      "Ġcontradiction": 7330,
      "Ġdiligent": 7331,
      "Ġprotection": 7332,
      "Angel": 7333,
      "According": 7334,
      "Beauty": 7335,
      "Brutus": 7336,
      "Cyriack": 7337,
      "Driving": 7338,
      "Dishonour": 7339,
      "EHOVAH": 7340,
      "LISH": 7341,
      "Mentre": 7342,
      "Private": 7343,
      "Regard": 7344,
      "Semichor": 7345,
      "cadem": 7346,
      "jugal": 7347,
      "Ġ-----------------------------------------": 7348,
      "Ġ------------------------------": 7349,
      "Ġthreds": 7350,
      "Ġaggra": 7351,
      "Ġsalute": 7352,
      "Ġsandy": 7353,
      "Ġsnowy": 7354,
      "Ġsympathize": 7355,
      "Ġwrincled": 7356,
      "Ġwipe": 7357,
      "Ġhomely": 7358,
      "Ġhuddling": 7359,
      "Ġobtain": 7360,
      "Ġoozy": 7361,
      "Ġmazes": 7362,
      "Ġtrespass": 7363,
      "enemy": 7364,
      "Ġdrouth": 7365,
      "Ġdazling": 7366,
      "Ġcleer": 7367,
      "Ġcases": 7368,
      "Ġcunning": 7369,
      "Ġcredulous": 7370,
      "Ġlifetime": 7371,
      "Ġlagging": 7372,
      "Ġnaufrag": 7373,
      "Ġtools": 7374,
      "Ġincident": 7375,
      "Ġgaudy": 7376,
      "ĠSisters": 7377,
      "ĠSecond": 7378,
      "ĠSavage": 7379,
      "ĠSorcerer": 7380,
      "ĠSanctuary": 7381,
      "Ġstartle": 7382,
      "Ġrevelry": 7383,
      "asperate": 7384,
      "Ġmysterious": 7385,
      "ĠLudlow": 7386,
      "ĠLocrine": 7387,
      "ĠLAWES": 7388,
      "ĠPrayers": 7389,
      "ĠAbraham": 7390,
      "ĠAthenian": 7391,
      "ĠArethuse": 7392,
      "ĠHinds": 7393,
      "ĠMistres": 7394,
      "ĠMORNING": 7395,
      "ĠMAIESTIES": 7396,
      "ĠMurtherer": 7397,
      "ĠCarrier": 7398,
      "ĠGardens": 7399,
      "Ġvouchsafe": 7400,
      "ĠBridgewater": 7401,
      "Ġspectacle": 7402,
      "Ġsublime": 7403,
      "ĠTabern": 7404,
      "ĠTetrachordon": 7405,
      "ĠTIME": 7406,
      "ĠTravailer": 7407,
      "ĠFAIR": 7408,
      "ĠFestival": 7409,
      "ĠForests": 7410,
      "Ġchoicest": 7411,
      "indicate": 7412,
      "Ġunemphatic": 7413,
      "Ġungodly": 7414,
      "ĠOccasions": 7415,
      "ĠEternity": 7416,
      "ĠEuripides": 7417,
      "ĠENGLISH": 7418,
      "Ġlikenes": 7419,
      "Ġblunders": 7420,
      "Ġblasphem": 7421,
      "Ġfarewel": 7422,
      "ĠNectar": 7423,
      "ospitable": 7424,
      "Ġglittering": 7425,
      "Ġglimmering": 7426,
      "Ġraigns": 7427,
      "Ġalwayes": 7428,
      "Ġambitious": 7429,
      "ĠJollity": 7430,
      "ĠVacation": 7431,
      "Ġperplex": 7432,
      "Ġperpetual": 7433,
      "departure": 7434,
      "Ġdespoil": 7435,
      "Ġreproduces": 7436,
      "Ġleggiad": 7437,
      "Shakespeare": 7438,
      "ĠAmbrosial": 7439,
      "Unmindfull": 7440,
      "Ġpriviledge": 7441,
      "Ġeminently": 7442,
      "Ġinvincible": 7443,
      "Ġunfortunate": 7444,
      "ĠMargaret": 7445,
      "SONNETS": 7446,
      "Ġbarbarous": 7447,
      "Ġburdensom": 7448,
      "Ġpunctuation": 7449,
      "ĠPRESENTED": 7450,
      "ĠContemplation": 7451,
      "CHESTER": 7452,
      "ĠAGONISTES": 7453
    },
    "merges": [
      [
        "Ġ",
        "Ġ"
      ],
      [
        "ĠĠ",
        "ĠĠ"
      ],
      [
        "č",
        "Ċ"
      ],
      [
        "t",
        "h"
      ],
      [
        "Ġ",
        "th"
      ],
      [
        "ĠĠĠĠ",
        "ĠĠĠĠ"
      ],
      [
        "Ġ",
        "a"
      ],
      [
        "i",
        "n"
      ],
      [
        "Ġ",
        "s"
      ],
      [
        "e",
        "r"
      ],
      [
        "n",
        "d"
      ],
      [
        "Ġ",
        "w"
      ],
      [
        "Ġth",
        "e"
      ],
      [
        "Ġ",
        "h"
      ],
      [
        "Ġ",
        "o"
      ],
      [
        "r",
        "e"
      ],
      [
        "o",
        "u"
      ],
      [
        "Ġ",
        "m"
      ],
      [
        "i",
        "s"
      ],
      [
        "Ġ",
        "f"
      ],
      [
        "Ġ",
        "b"
      ],
      [
        "Ġ",
        "t"
      ],
      [
        "e",
        "s"
      ],
      [
        "o",
        "n"
      ],
      [
        "o",
        "r"
      ],
      [
        "a",
        "t"
      ],
      [
        "l",
        "l"
      ],
      [
        "e",
        "n"
      ],
      [
        "Ġ",
        "d"
      ],
      [
        "e",
        "a"
      ],
      [
        "ĠĠĠĠĠĠĠĠ",
        "ĠĠĠĠĠĠĠĠ"
      ],
      [
        "Ġ",
        "c"
      ],
      [
        "Ġa",
        "nd"
      ],
      [
        "Ġ",
        "l"
      ],
      [
        "Ġo",
        "f"
      ],
      [
        "Ġ",
        "p"
      ],
      [
        "Ġ",
        "n"
      ],
      [
        "s",
        "t"
      ],
      [
        "in",
        "g"
      ],
      [
        "Ġt",
        "o"
      ],
      [
        "-",
        "-"
      ],
      [
        "a",
        "n"
      ],
      [
        "Ġ",
        "in"
      ],
      [
        "T",
        "h"
      ],
      [
        "o",
        "w"
      ],
      [
        "e",
        "d"
      ],
      [
        "o",
        "m"
      ],
      [
        "i",
        "t"
      ],
      [
        "'",
        "d"
      ],
      [
        "g",
        "h"
      ],
      [
        "a",
        "r"
      ],
      [
        "i",
        "th"
      ],
      [
        "Ġ",
        "g"
      ],
      [
        "i",
        "r"
      ],
      [
        "c",
        "e"
      ],
      [
        "l",
        "e"
      ],
      [
        "Ġw",
        "h"
      ],
      [
        "s",
        "e"
      ],
      [
        "ĠĠ",
        "Ġ"
      ],
      [
        "Ġ",
        "I"
      ],
      [
        "v",
        "e"
      ],
      [
        "A",
        "nd"
      ],
      [
        "c",
        "h"
      ],
      [
        "o",
        "t"
      ],
      [
        "e",
        "t"
      ],
      [
        "Ġh",
        "a"
      ],
      [
        "r",
        "a"
      ],
      [
        "Ġ",
        "S"
      ],
      [
        "u",
        "t"
      ],
      [
        "gh",
        "t"
      ],
      [
        "e",
        "l"
      ],
      [
        "Ġw",
        "ith"
      ],
      [
        "r",
        "i"
      ],
      [
        "Ġ",
        "u"
      ],
      [
        "Ġs",
        "h"
      ],
      [
        "ea",
        "r"
      ],
      [
        "--",
        "--"
      ],
      [
        "l",
        "d"
      ],
      [
        "er",
        "e"
      ],
      [
        "a",
        "m"
      ],
      [
        "o",
        "d"
      ],
      [
        "Ġs",
        "t"
      ],
      [
        "Ġ",
        "re"
      ],
      [
        "Ġ",
        "e"
      ],
      [
        "a",
        "l"
      ],
      [
        "Ġb",
        "e"
      ],
      [
        "i",
        "d"
      ],
      [
        "i",
        "m"
      ],
      [
        "l",
        "y"
      ],
      [
        "a",
        "y"
      ],
      [
        "u",
        "r"
      ],
      [
        "Ġth",
        "at"
      ],
      [
        "Ġh",
        "is"
      ],
      [
        "Ġth",
        "y"
      ],
      [
        "en",
        "t"
      ],
      [
        "a",
        "s"
      ],
      [
        "v",
        "er"
      ],
      [
        "r",
        "o"
      ],
      [
        "i",
        "on"
      ],
      [
        "a",
        "d"
      ],
      [
        "Ġm",
        "y"
      ],
      [
        "Ġo",
        "n"
      ],
      [
        "Ġm",
        "e"
      ],
      [
        "Ġn",
        "ot"
      ],
      [
        "Ġ",
        "y"
      ],
      [
        "Ġ",
        "L"
      ],
      [
        "W",
        "h"
      ],
      [
        "i",
        "ll"
      ],
      [
        "Ġth",
        "ou"
      ],
      [
        "es",
        "t"
      ],
      [
        "Th",
        "e"
      ],
      [
        "i",
        "l"
      ],
      [
        "a",
        "in"
      ],
      [
        "ou",
        "r"
      ],
      [
        "Ġ",
        "P"
      ],
      [
        "Ġf",
        "or"
      ],
      [
        "Ġ",
        "A"
      ],
      [
        "Ġ",
        "1"
      ],
      [
        "i",
        "ght"
      ],
      [
        "Ġ",
        "H"
      ],
      [
        "a",
        "ll"
      ],
      [
        "Ġ",
        "M"
      ],
      [
        "Ġa",
        "s"
      ],
      [
        "o",
        "re"
      ],
      [
        "Ġ",
        "C"
      ],
      [
        "ĠĠĠĠĠĠĠĠĠĠĠĠĠĠĠĠ",
        "ĠĠĠĠĠĠĠĠ"
      ],
      [
        "Ġa",
        "ll"
      ],
      [
        "r",
        "om"
      ],
      [
        "T",
        "o"
      ],
      [
        "ou",
        "s"
      ],
      [
        "es",
        "s"
      ],
      [
        "c",
        "k"
      ],
      [
        "Ġ",
        "G"
      ],
      [
        "Ġo",
        "r"
      ],
      [
        "Ġ",
        "is"
      ],
      [
        "g",
        "e"
      ],
      [
        "e",
        "e"
      ],
      [
        "r",
        "u"
      ],
      [
        "Ġ",
        "v"
      ],
      [
        "c",
        "t"
      ],
      [
        "i",
        "f"
      ],
      [
        "Ġs",
        "o"
      ],
      [
        "Ġ",
        "B"
      ],
      [
        "er",
        "s"
      ],
      [
        "u",
        "s"
      ],
      [
        "Ġh",
        "er"
      ],
      [
        "Ġs",
        "p"
      ],
      [
        "Ġthe",
        "e"
      ],
      [
        "Ġ",
        "it"
      ],
      [
        "r",
        "ou"
      ],
      [
        "or",
        "d"
      ],
      [
        "----",
        "----"
      ],
      [
        "Ġs",
        "u"
      ],
      [
        "a",
        "st"
      ],
      [
        "Ġf",
        "rom"
      ],
      [
        "ĠĠĠĠĠĠĠĠĠĠĠĠĠĠĠĠ",
        "ĠĠĠĠ"
      ],
      [
        "O",
        "f"
      ],
      [
        "Ġ",
        "T"
      ],
      [
        "k",
        "e"
      ],
      [
        "Ġth",
        "is"
      ],
      [
        "e",
        "ll"
      ],
      [
        "on",
        "g"
      ],
      [
        "Ġ",
        "F"
      ],
      [
        "re",
        "s"
      ],
      [
        "n",
        "t"
      ],
      [
        "Ġa",
        "t"
      ],
      [
        "Ġc",
        "h"
      ],
      [
        "i",
        "e"
      ],
      [
        "th",
        "er"
      ],
      [
        "Ġb",
        "y"
      ],
      [
        "e",
        "m"
      ],
      [
        "in",
        "d"
      ],
      [
        "in",
        "e"
      ],
      [
        "an",
        "t"
      ],
      [
        "ou",
        "ld"
      ],
      [
        "Ġu",
        "n"
      ],
      [
        "Ġh",
        "e"
      ],
      [
        "o",
        "od"
      ],
      [
        "Ġn",
        "e"
      ],
      [
        "Ġn",
        "o"
      ],
      [
        "'",
        "s"
      ],
      [
        "Th",
        "at"
      ],
      [
        "is",
        "t"
      ],
      [
        "i",
        "ch"
      ],
      [
        "o",
        "se"
      ],
      [
        "Ġ",
        "O"
      ],
      [
        "p",
        "h"
      ],
      [
        "Ġ",
        "E"
      ],
      [
        "a",
        "nd"
      ],
      [
        "W",
        "ith"
      ],
      [
        "b",
        "le"
      ],
      [
        "at",
        "e"
      ],
      [
        "Ġthe",
        "ir"
      ],
      [
        "Ġl",
        "o"
      ],
      [
        "p",
        "t"
      ],
      [
        "Ġha",
        "ve"
      ],
      [
        "Ġh",
        "im"
      ],
      [
        "q",
        "u"
      ],
      [
        "Ġ",
        "k"
      ],
      [
        "Ġc",
        "om"
      ],
      [
        "Ġl",
        "i"
      ],
      [
        "Ġw",
        "as"
      ],
      [
        "Ġd",
        "o"
      ],
      [
        "n",
        "g"
      ],
      [
        "Ġb",
        "l"
      ],
      [
        "B",
        "ut"
      ],
      [
        "o",
        "l"
      ],
      [
        "Ġthe",
        "m"
      ],
      [
        "u",
        "l"
      ],
      [
        "Ġ",
        "D"
      ],
      [
        "Ġb",
        "ut"
      ],
      [
        "en",
        "ce"
      ],
      [
        "e",
        "nd"
      ],
      [
        "Ġc",
        "on"
      ],
      [
        "i",
        "c"
      ],
      [
        "t",
        "er"
      ],
      [
        "u",
        "m"
      ],
      [
        "I",
        "n"
      ],
      [
        "is",
        "e"
      ],
      [
        "u",
        "st"
      ],
      [
        "Ġ",
        "W"
      ],
      [
        "Ġf",
        "a"
      ],
      [
        "Ġd",
        "e"
      ],
      [
        "ĠG",
        "od"
      ],
      [
        "p",
        "p"
      ],
      [
        "am",
        "e"
      ],
      [
        "i",
        "es"
      ],
      [
        "ar",
        "d"
      ],
      [
        "Ġthe",
        "n"
      ],
      [
        "r",
        "ow"
      ],
      [
        "Ġthe",
        "y"
      ],
      [
        "Ġp",
        "l"
      ],
      [
        "or",
        "t"
      ],
      [
        "ea",
        "v"
      ],
      [
        "u",
        "n"
      ],
      [
        "i",
        "v"
      ],
      [
        "o",
        "ld"
      ],
      [
        "u",
        "re"
      ],
      [
        "Ġsh",
        "all"
      ],
      [
        "Ġwh",
        "at"
      ],
      [
        "o",
        "st"
      ],
      [
        "Ġ",
        "j"
      ],
      [
        "Ġf",
        "l"
      ],
      [
        "Ġn",
        "ow"
      ],
      [
        "Ġwh",
        "o"
      ],
      [
        "Ġs",
        "om"
      ],
      [
        "i",
        "ous"
      ],
      [
        "Ġ",
        "N"
      ],
      [
        "is",
        "h"
      ],
      [
        "Ġ",
        "R"
      ],
      [
        "Ġh",
        "ear"
      ],
      [
        "ea",
        "d"
      ],
      [
        "Ġu",
        "p"
      ],
      [
        "o",
        "s"
      ],
      [
        "Ġw",
        "ill"
      ],
      [
        "Ġs",
        "a"
      ],
      [
        "Ġwh",
        "ich"
      ],
      [
        "Ġa",
        "n"
      ],
      [
        "Ġm",
        "ore"
      ],
      [
        "Ġ",
        "Th"
      ],
      [
        "a",
        "u"
      ],
      [
        "Ġs",
        "e"
      ],
      [
        "Ġo",
        "ur"
      ],
      [
        "o",
        "p"
      ],
      [
        "o",
        "k"
      ],
      [
        "r",
        "ing"
      ],
      [
        "ou",
        "nd"
      ],
      [
        "O",
        "r"
      ],
      [
        "i",
        "gh"
      ],
      [
        "i",
        "le"
      ],
      [
        "u",
        "ll"
      ],
      [
        "Ġth",
        "ir"
      ],
      [
        "at",
        "ion"
      ],
      [
        "Ġa",
        "re"
      ],
      [
        "or",
        "n"
      ],
      [
        "ĠĠĠĠĠĠĠĠĠĠĠĠĠĠĠĠĠĠĠĠĠĠĠĠ",
        "ĠĠĠĠ"
      ],
      [
        "Ġg",
        "l"
      ],
      [
        "Ġst",
        "re"
      ],
      [
        "ĠL",
        "ord"
      ],
      [
        "Ġw",
        "or"
      ],
      [
        "Ġsh",
        "e"
      ],
      [
        "Ġm",
        "an"
      ],
      [
        "Ġu",
        "s"
      ],
      [
        "n",
        "ow"
      ],
      [
        "Ġa",
        "r"
      ],
      [
        "Ġm",
        "ay"
      ],
      [
        "it",
        "y"
      ],
      [
        "Ġe",
        "x"
      ],
      [
        "Ġy",
        "ou"
      ],
      [
        "ou",
        "t"
      ],
      [
        "i",
        "re"
      ],
      [
        "Ġ",
        "ra"
      ],
      [
        "Ġ",
        "if"
      ],
      [
        "Ġa",
        "l"
      ],
      [
        "i",
        "g"
      ],
      [
        "Ġa",
        "m"
      ],
      [
        "ea",
        "s"
      ],
      [
        "Ġg",
        "re"
      ],
      [
        "Ġ1",
        "0"
      ],
      [
        "'",
        "t"
      ],
      [
        "i",
        "ck"
      ],
      [
        "--------",
        "--------"
      ],
      [
        "i",
        "ve"
      ],
      [
        "r",
        "an"
      ],
      [
        "Ġs",
        "w"
      ],
      [
        "Ġ",
        "en"
      ],
      [
        "Ġ",
        "And"
      ],
      [
        "Ġha",
        "d"
      ],
      [
        "Ġ1",
        "6"
      ],
      [
        "a",
        "k"
      ],
      [
        "a",
        "th"
      ],
      [
        "a",
        "re"
      ],
      [
        "o",
        "th"
      ],
      [
        "r",
        "in"
      ],
      [
        "Ġp",
        "ro"
      ],
      [
        "id",
        "e"
      ],
      [
        "o",
        "nd"
      ],
      [
        "r",
        "y"
      ],
      [
        "ee",
        "p"
      ],
      [
        "a",
        "b"
      ],
      [
        "f",
        "ore"
      ],
      [
        "i",
        "ce"
      ],
      [
        "Ġha",
        "th"
      ],
      [
        "t",
        "ed"
      ],
      [
        "u",
        "e"
      ],
      [
        "n",
        "s"
      ],
      [
        "Ġa",
        "b"
      ],
      [
        "ing",
        "s"
      ],
      [
        "Ġwh",
        "ere"
      ],
      [
        "F",
        "or"
      ],
      [
        "Ġs",
        "ee"
      ],
      [
        "Ġc",
        "l"
      ],
      [
        "a",
        "ke"
      ],
      [
        "Ġ",
        "ru"
      ],
      [
        "ou",
        "nt"
      ],
      [
        "Ġc",
        "an"
      ],
      [
        "Ġo",
        "ut"
      ],
      [
        "e",
        "ct"
      ],
      [
        "o",
        "y"
      ],
      [
        "u",
        "d"
      ],
      [
        "Ġ",
        "J"
      ],
      [
        "Ġ",
        "ear"
      ],
      [
        "er",
        "t"
      ],
      [
        "Ġe",
        "ver"
      ],
      [
        "Ġy",
        "et"
      ],
      [
        "2",
        "0"
      ],
      [
        "f",
        "f"
      ],
      [
        "g",
        "ain"
      ],
      [
        "Ġ",
        "V"
      ],
      [
        "Ġ",
        "ri"
      ],
      [
        "Ġy",
        "our"
      ],
      [
        "a",
        "g"
      ],
      [
        "Ġd",
        "is"
      ],
      [
        "ĠĠĠĠĠĠĠĠĠĠĠĠĠĠĠĠ",
        "ĠĠĠĠĠĠĠĠĠĠĠĠĠĠĠĠ"
      ],
      [
        "rou",
        "gh"
      ],
      [
        "Ġh",
        "igh"
      ],
      [
        "A",
        "s"
      ],
      [
        "o",
        "ve"
      ],
      [
        "v",
        "es"
      ],
      [
        "Ġth",
        "ere"
      ],
      [
        "nd",
        "er"
      ],
      [
        "Ġp",
        "er"
      ],
      [
        "ar",
        "k"
      ],
      [
        "el",
        "f"
      ],
      [
        "p",
        "l"
      ],
      [
        "t",
        "s"
      ],
      [
        "w",
        "n"
      ],
      [
        "as",
        "s"
      ],
      [
        "u",
        "ch"
      ],
      [
        "Ġf",
        "o"
      ],
      [
        "ĠH",
        "eav"
      ],
      [
        "Ġsu",
        "ch"
      ],
      [
        "a",
        "c"
      ],
      [
        "a",
        "ge"
      ],
      [
        "Ġd",
        "id"
      ],
      [
        "b",
        "l"
      ],
      [
        "Ġ",
        "*"
      ],
      [
        "Ġ",
        "qu"
      ],
      [
        "Ġs",
        "elf"
      ],
      [
        "Ġw",
        "e"
      ],
      [
        "on",
        "s"
      ],
      [
        "Ġd",
        "ay"
      ],
      [
        "an",
        "ce"
      ],
      [
        "Ġg",
        "ood"
      ],
      [
        "Ġha",
        "nd"
      ],
      [
        "Ġk",
        "now"
      ],
      [
        "Ġ",
        "The"
      ],
      [
        "n",
        "ess"
      ],
      [
        "Ġthe",
        "se"
      ],
      [
        "on",
        "e"
      ],
      [
        "t",
        "o"
      ],
      [
        "a",
        "p"
      ],
      [
        "h",
        "e"
      ],
      [
        "m",
        "s"
      ],
      [
        "Ġ",
        "im"
      ],
      [
        "Ġw",
        "ould"
      ],
      [
        "Ġh",
        "ow"
      ],
      [
        "Ġh",
        "ere"
      ],
      [
        "Ġf",
        "ir"
      ],
      [
        "Ġt",
        "ru"
      ],
      [
        "Ġof",
        "f"
      ],
      [
        "c",
        "c"
      ],
      [
        "el",
        "d"
      ],
      [
        "3",
        "0"
      ],
      [
        "e",
        "et"
      ],
      [
        "ng",
        "th"
      ],
      [
        "4",
        "0"
      ],
      [
        "S",
        "am"
      ],
      [
        "f",
        "t"
      ],
      [
        "Ġs",
        "l"
      ],
      [
        "Ġm",
        "ight"
      ],
      [
        "ĠĠĠĠĠĠĠĠĠĠĠĠĠĠĠĠ",
        "ĠĠĠĠĠĠĠĠĠĠĠĠĠĠĠĠĠĠĠĠ"
      ],
      [
        "Ġwh",
        "en"
      ],
      [
        "ĠĠĠĠĠĠĠĠĠĠĠĠĠĠĠĠĠĠĠĠĠĠĠĠ",
        "Ġ"
      ],
      [
        "Ġstre",
        "ngth"
      ],
      [
        "Ġgre",
        "at"
      ],
      [
        "Ġ",
        "ver"
      ],
      [
        "Ġo",
        "wn"
      ],
      [
        "ea",
        "th"
      ],
      [
        "it",
        "e"
      ],
      [
        "se",
        "l"
      ],
      [
        "Ġha",
        "st"
      ],
      [
        "il",
        "t"
      ],
      [
        "i",
        "an"
      ],
      [
        "ou",
        "l"
      ],
      [
        "im",
        "e"
      ],
      [
        "ur",
        "n"
      ],
      [
        "Ġli",
        "ke"
      ],
      [
        "re",
        "e"
      ],
      [
        "Ġl",
        "ong"
      ],
      [
        "ear",
        "s"
      ],
      [
        "if",
        "e"
      ],
      [
        "I",
        "I"
      ],
      [
        "f",
        "ul"
      ],
      [
        "k",
        "s"
      ],
      [
        "Ġth",
        "rough"
      ],
      [
        "Ġo",
        "ther"
      ],
      [
        "Ġm",
        "en"
      ],
      [
        "ow",
        "n"
      ],
      [
        "ow",
        "er"
      ],
      [
        "Wh",
        "ere"
      ],
      [
        "ĠC",
        "h"
      ],
      [
        "5",
        "0"
      ],
      [
        "O",
        "N"
      ],
      [
        "a",
        "ce"
      ],
      [
        "d",
        "e"
      ],
      [
        "Ġ",
        "("
      ],
      [
        "Ġw",
        "ere"
      ],
      [
        "ar",
        "t"
      ],
      [
        "Ġy",
        "e"
      ],
      [
        "Wh",
        "at"
      ],
      [
        "rou",
        "nd"
      ],
      [
        "C",
        "h"
      ],
      [
        "i",
        "ld"
      ],
      [
        "Ġw",
        "ay"
      ],
      [
        "Ġp",
        "ra"
      ],
      [
        "ad",
        "e"
      ],
      [
        "res",
        "s"
      ],
      [
        "a",
        "ble"
      ],
      [
        "i",
        "p"
      ],
      [
        "m",
        "ent"
      ],
      [
        "n",
        "e"
      ],
      [
        "s",
        "h"
      ],
      [
        "Ġa",
        "d"
      ],
      [
        "Ġs",
        "c"
      ],
      [
        "it",
        "s"
      ],
      [
        "'",
        "re"
      ],
      [
        "Y",
        "et"
      ],
      [
        "w",
        "ard"
      ],
      [
        "Ġ",
        "ro"
      ],
      [
        "Ġs",
        "er"
      ],
      [
        "Ġb",
        "re"
      ],
      [
        "Th",
        "ou"
      ],
      [
        "el",
        "y"
      ],
      [
        "N",
        "ot"
      ],
      [
        "a",
        "w"
      ],
      [
        "a",
        "ve"
      ],
      [
        "Ġth",
        "ose"
      ],
      [
        "Ġd",
        "es"
      ],
      [
        "ea",
        "l"
      ],
      [
        "Ġl",
        "et"
      ],
      [
        "it",
        "ion"
      ],
      [
        "Ġ",
        "6"
      ],
      [
        "Ġw",
        "ell"
      ],
      [
        "re",
        "d"
      ],
      [
        "Wh",
        "o"
      ],
      [
        "Ġfir",
        "st"
      ],
      [
        "F",
        "rom"
      ],
      [
        "Ġs",
        "et"
      ],
      [
        "Ġo",
        "ld"
      ],
      [
        "Ġd",
        "el"
      ],
      [
        "ea",
        "st"
      ],
      [
        "Ġl",
        "ight"
      ],
      [
        "Ġg",
        "ra"
      ],
      [
        "Ġsh",
        "ould"
      ],
      [
        "Ġe",
        "y"
      ],
      [
        "Ġon",
        "e"
      ],
      [
        "Ġsom",
        "e"
      ],
      [
        "1",
        "0"
      ],
      [
        "7",
        "0"
      ],
      [
        "M",
        "y"
      ],
      [
        "a",
        "ck"
      ],
      [
        "Ġw",
        "ord"
      ],
      [
        "Ġh",
        "on"
      ],
      [
        "Ġm",
        "ust"
      ],
      [
        "Ġm",
        "ost"
      ],
      [
        "Ġd",
        "ark"
      ],
      [
        "Ġn",
        "ight"
      ],
      [
        "Ġthou",
        "ght"
      ],
      [
        "Ġfa",
        "ir"
      ],
      [
        "H",
        "e"
      ],
      [
        "H",
        "is"
      ],
      [
        "a",
        "z"
      ],
      [
        "e",
        "p"
      ],
      [
        "x",
        "t"
      ],
      [
        "ĠĠĠĠ",
        "ĠĠĠ"
      ],
      [
        "ou",
        "d"
      ],
      [
        "Ġb",
        "est"
      ],
      [
        "ll",
        "ow"
      ],
      [
        "Ġp",
        "re"
      ],
      [
        "Wh",
        "ich"
      ],
      [
        "8",
        "0"
      ],
      [
        "S",
        "o"
      ],
      [
        "a",
        "il"
      ],
      [
        "l",
        "i"
      ],
      [
        "l",
        "ess"
      ],
      [
        "s",
        "on"
      ],
      [
        "Ġa",
        "gain"
      ],
      [
        "re",
        "ad"
      ],
      [
        "ea",
        "k"
      ],
      [
        "Th",
        "en"
      ],
      [
        "ĠS",
        "t"
      ],
      [
        "Ġdo",
        "th"
      ],
      [
        "au",
        "se"
      ],
      [
        "B",
        "y"
      ],
      [
        "b",
        "er"
      ],
      [
        "o",
        "ck"
      ],
      [
        "Ġs",
        "m"
      ],
      [
        "om",
        "e"
      ],
      [
        "Ġe",
        "nd"
      ],
      [
        "g",
        "in"
      ],
      [
        "Ġh",
        "ead"
      ],
      [
        "en",
        "s"
      ],
      [
        "ea",
        "n"
      ],
      [
        "Ġl",
        "ast"
      ],
      [
        "Ġof",
        "t"
      ],
      [
        "Ġbe",
        "fore"
      ],
      [
        "Ġon",
        "ce"
      ],
      [
        "Ġup",
        "on"
      ],
      [
        "ig",
        "n"
      ],
      [
        "9",
        "0"
      ],
      [
        "f",
        "ull"
      ],
      [
        "o",
        "f"
      ],
      [
        "Ġa",
        "pp"
      ],
      [
        "Ġt",
        "w"
      ],
      [
        "Ġt",
        "ri"
      ],
      [
        "an",
        "g"
      ],
      [
        "Ġwh",
        "ile"
      ],
      [
        "Ġst",
        "ill"
      ],
      [
        "Ġne",
        "ver"
      ],
      [
        "Ġar",
        "t"
      ],
      [
        "l",
        "es"
      ],
      [
        "o",
        "v"
      ],
      [
        "p",
        "er"
      ],
      [
        "Ġo",
        "ver"
      ],
      [
        "ea",
        "ce"
      ],
      [
        "Ġc",
        "all"
      ],
      [
        "Ġe",
        "v"
      ],
      [
        "ĠĠĠĠĠĠĠĠĠĠĠĠĠĠĠĠĠĠĠĠ",
        "Ġ"
      ],
      [
        "ort",
        "al"
      ],
      [
        "Ġse",
        "c"
      ],
      [
        "Ġgl",
        "or"
      ],
      [
        "Ch",
        "or"
      ],
      [
        "i",
        "ver"
      ],
      [
        "s",
        "s"
      ],
      [
        "Ġ",
        "K"
      ],
      [
        "Ġ",
        "20"
      ],
      [
        "Ġm",
        "uch"
      ],
      [
        "is",
        "s"
      ],
      [
        "Ġf",
        "ound"
      ],
      [
        "Ġl",
        "ife"
      ],
      [
        "it",
        "t"
      ],
      [
        "Ġg",
        "u"
      ],
      [
        "ri",
        "ght"
      ],
      [
        "ri",
        "end"
      ],
      [
        "Ġu",
        "nder"
      ],
      [
        "Ġre",
        "m"
      ],
      [
        "Wh",
        "en"
      ],
      [
        "ain",
        "s"
      ],
      [
        "Ġcon",
        "t"
      ],
      [
        "O",
        "n"
      ],
      [
        "i",
        "er"
      ],
      [
        "er",
        "d"
      ],
      [
        "Ġp",
        "ower"
      ],
      [
        "an",
        "c"
      ],
      [
        "Ġin",
        "to"
      ],
      [
        "ed",
        "s"
      ],
      [
        "ĠI",
        "n"
      ],
      [
        "Ġre",
        "p"
      ],
      [
        "ĠĠĠĠĠĠĠĠĠĠĠĠĠĠĠĠĠĠĠĠĠĠĠĠ",
        "ĠĠ"
      ],
      [
        "ĠĠĠĠĠĠĠĠĠĠĠĠĠĠĠĠĠĠĠĠ",
        "ĠĠĠ"
      ],
      [
        "a",
        "le"
      ],
      [
        "c",
        "ri"
      ],
      [
        "e",
        "c"
      ],
      [
        "r",
        "on"
      ],
      [
        "y",
        "m"
      ],
      [
        "Ġ",
        "ea"
      ],
      [
        "Ġ",
        "To"
      ],
      [
        "Ġs",
        "ing"
      ],
      [
        "er",
        "n"
      ],
      [
        "Ġwith",
        "out"
      ],
      [
        "Ġre",
        "s"
      ],
      [
        "Ġthou",
        "gh"
      ],
      [
        "Ġlo",
        "ve"
      ],
      [
        "Ġj",
        "ust"
      ],
      [
        "au",
        "ght"
      ],
      [
        "Ġhon",
        "our"
      ],
      [
        "a",
        "v"
      ],
      [
        "f",
        "ter"
      ],
      [
        "o",
        "ok"
      ],
      [
        "Ġb",
        "oth"
      ],
      [
        "Ġp",
        "o"
      ],
      [
        "Ġp",
        "res"
      ],
      [
        "Ġre",
        "ad"
      ],
      [
        "ĠP",
        "h"
      ],
      [
        "ĠA",
        "r"
      ],
      [
        "ĠĠĠĠĠĠĠĠĠĠĠĠĠĠĠĠĠĠĠĠĠĠĠĠ",
        "ĠĠĠ"
      ],
      [
        "Ġsw",
        "eet"
      ],
      [
        "Ġ",
        "&"
      ],
      [
        "Ġf",
        "e"
      ],
      [
        "Ġl",
        "e"
      ],
      [
        "Ġn",
        "or"
      ],
      [
        "Th",
        "is"
      ],
      [
        "Ġre",
        "st"
      ],
      [
        "our",
        "s"
      ],
      [
        "ĠB",
        "ro"
      ],
      [
        "r",
        "is"
      ],
      [
        "Ġ",
        "2"
      ],
      [
        "Ġf",
        "ind"
      ],
      [
        "Ġd",
        "eath"
      ],
      [
        "Ġd",
        "own"
      ],
      [
        "Ġg",
        "ive"
      ],
      [
        "Ġwh",
        "om"
      ],
      [
        "Ġsp",
        "ell"
      ],
      [
        "ĠĠĠĠĠĠĠĠĠĠĠĠĠĠĠĠĠĠĠĠ",
        "ĠĠ"
      ],
      [
        "Ġcom",
        "m"
      ],
      [
        "c",
        "l"
      ],
      [
        "f",
        "e"
      ],
      [
        "i",
        "eld"
      ],
      [
        "p",
        "le"
      ],
      [
        "Ġ",
        "ed"
      ],
      [
        "in",
        "es"
      ],
      [
        "Ġh",
        "o"
      ],
      [
        "Ġm",
        "is"
      ],
      [
        "Ġb",
        "ring"
      ],
      [
        "Ġt",
        "ime"
      ],
      [
        "ut",
        "e"
      ],
      [
        "rou",
        "ght"
      ],
      [
        "Ġk",
        "eep"
      ],
      [
        "Ġcom",
        "e"
      ],
      [
        "row",
        "n"
      ],
      [
        "H",
        "E"
      ],
      [
        "H",
        "ow"
      ],
      [
        "M",
        "an"
      ],
      [
        "a",
        "id"
      ],
      [
        "b",
        "e"
      ],
      [
        "i",
        "a"
      ],
      [
        "i",
        "al"
      ],
      [
        "o",
        "ice"
      ],
      [
        "r",
        "ong"
      ],
      [
        "Ġm",
        "ade"
      ],
      [
        "Ġb",
        "et"
      ],
      [
        "ar",
        "m"
      ],
      [
        "ra",
        "g"
      ],
      [
        "ĠS",
        "on"
      ],
      [
        "ĠS",
        "am"
      ],
      [
        "ain",
        "t"
      ],
      [
        "Ġat",
        "t"
      ],
      [
        "Ġne",
        "w"
      ],
      [
        "op",
        "e"
      ],
      [
        "ran",
        "s"
      ],
      [
        "B",
        "e"
      ],
      [
        "w",
        "h"
      ],
      [
        "Ġ",
        "round"
      ],
      [
        "Ġm",
        "ind"
      ],
      [
        "Ġf",
        "ar"
      ],
      [
        "Ġb",
        "ro"
      ],
      [
        "Ġc",
        "ould"
      ],
      [
        "Ġg",
        "o"
      ],
      [
        "ad",
        "y"
      ],
      [
        "Ġas",
        "s"
      ],
      [
        "ct",
        "ion"
      ],
      [
        "Ġso",
        "on"
      ],
      [
        "ĠF",
        "a"
      ],
      [
        "Ġli",
        "ve"
      ],
      [
        "ĠSam",
        "son"
      ],
      [
        "I",
        "f"
      ],
      [
        "u",
        "se"
      ],
      [
        "in",
        "t"
      ],
      [
        "Ġs",
        "in"
      ],
      [
        "ou",
        "gh"
      ],
      [
        "Ġp",
        "art"
      ],
      [
        "Ġp",
        "eace"
      ],
      [
        "Ġn",
        "ame"
      ],
      [
        "Th",
        "y"
      ],
      [
        "ra",
        "y"
      ],
      [
        "ĠS",
        "he"
      ],
      [
        "Ġre",
        "t"
      ],
      [
        "em",
        "pt"
      ],
      [
        "Ġpl",
        "ace"
      ],
      [
        "sel",
        "f"
      ],
      [
        "Ġword",
        "s"
      ],
      [
        "S",
        "h"
      ],
      [
        "b",
        "s"
      ],
      [
        "f",
        "er"
      ],
      [
        "Ġ",
        "4"
      ],
      [
        "in",
        "s"
      ],
      [
        "Ġm",
        "ake"
      ],
      [
        "Ġf",
        "ull"
      ],
      [
        "Ġf",
        "ree"
      ],
      [
        "Ġt",
        "ra"
      ],
      [
        "Ġd",
        "iv"
      ],
      [
        "Ġp",
        "ur"
      ],
      [
        "Ġp",
        "ass"
      ],
      [
        "Ġto",
        "o"
      ],
      [
        "Ġg",
        "od"
      ],
      [
        "ĠS",
        "p"
      ],
      [
        "al",
        "t"
      ],
      [
        "ĠB",
        "ut"
      ],
      [
        "Ġj",
        "oy"
      ],
      [
        "Ġman",
        "y"
      ],
      [
        "Ġim",
        "p"
      ],
      [
        "Ġea",
        "ch"
      ],
      [
        "S",
        "p"
      ],
      [
        "e",
        "f"
      ],
      [
        "n",
        "ing"
      ],
      [
        "o",
        "c"
      ],
      [
        "Ġ",
        "ent"
      ],
      [
        "Ġs",
        "ay"
      ],
      [
        "Ġs",
        "ight"
      ],
      [
        "at",
        "ed"
      ],
      [
        "ea",
        "se"
      ],
      [
        "Ġl",
        "ow"
      ],
      [
        "ĠI",
        "s"
      ],
      [
        "et",
        "s"
      ],
      [
        "el",
        "s"
      ],
      [
        "Ġbe",
        "en"
      ],
      [
        "Ġon",
        "ly"
      ],
      [
        "ĠA",
        "m"
      ],
      [
        "ph",
        "erd"
      ],
      [
        "Ġear",
        "th"
      ],
      [
        "Ġri",
        "ght"
      ],
      [
        "ĠPh",
        "il"
      ],
      [
        "ĠShe",
        "pherd"
      ],
      [
        "A",
        "t"
      ],
      [
        "Q",
        "u"
      ],
      [
        "U",
        "n"
      ],
      [
        "g",
        "g"
      ],
      [
        "j",
        "ect"
      ],
      [
        "l",
        "ed"
      ],
      [
        "u",
        "res"
      ],
      [
        "Ġ",
        "r"
      ],
      [
        "th",
        "e"
      ],
      [
        "Ġa",
        "ff"
      ],
      [
        "in",
        "k"
      ],
      [
        "Ġf",
        "ear"
      ],
      [
        "en",
        "g"
      ],
      [
        "ow",
        "s"
      ],
      [
        "ar",
        "s"
      ],
      [
        "ith",
        "er"
      ],
      [
        "le",
        "m"
      ],
      [
        "ĠS",
        "h"
      ],
      [
        "ĠS",
        "un"
      ],
      [
        "Ġhear",
        "d"
      ],
      [
        "Ġever",
        "y"
      ],
      [
        "Ġagain",
        "st"
      ],
      [
        "cri",
        "pt"
      ],
      [
        "6",
        "0"
      ],
      [
        "7",
        "3"
      ],
      [
        "N",
        "or"
      ],
      [
        "f",
        "or"
      ],
      [
        "o",
        "ther"
      ],
      [
        "Ġ",
        "30"
      ],
      [
        "Ġ",
        "40"
      ],
      [
        "th",
        "ing"
      ],
      [
        "Ġa",
        "cc"
      ],
      [
        "Ġs",
        "il"
      ],
      [
        "Ġw",
        "a"
      ],
      [
        "Ġw",
        "ind"
      ],
      [
        "Ġh",
        "u"
      ],
      [
        "Ġm",
        "ortal"
      ],
      [
        "Ġf",
        "riend"
      ],
      [
        "Ġb",
        "right"
      ],
      [
        "at",
        "ch"
      ],
      [
        "Ġd",
        "ou"
      ],
      [
        "Ġl",
        "ess"
      ],
      [
        "Ġp",
        "e"
      ],
      [
        "Ġp",
        "rin"
      ],
      [
        "Ġin",
        "t"
      ],
      [
        "ir",
        "th"
      ],
      [
        "Ġwh",
        "ose"
      ],
      [
        "Ġre",
        "v"
      ],
      [
        "Ġbe",
        "h"
      ],
      [
        "im",
        "es"
      ],
      [
        "if",
        "t"
      ],
      [
        "os",
        "s"
      ],
      [
        "Ġser",
        "v"
      ],
      [
        "Ġed",
        "ition"
      ],
      [
        "N",
        "o"
      ],
      [
        "X",
        "X"
      ],
      [
        "i",
        "ly"
      ],
      [
        "n",
        "es"
      ],
      [
        "Ġ",
        "5"
      ],
      [
        "Ġ",
        "8"
      ],
      [
        "Ġ",
        "9"
      ],
      [
        "Ġ",
        "Of"
      ],
      [
        "Ġa",
        "ge"
      ],
      [
        "Ġs",
        "oul"
      ],
      [
        "Ġh",
        "um"
      ],
      [
        "Ġh",
        "eav"
      ],
      [
        "ou",
        "n"
      ],
      [
        "Ġf",
        "al"
      ],
      [
        "Ġd",
        "i"
      ],
      [
        "Ġd",
        "eep"
      ],
      [
        "Ġc",
        "ount"
      ],
      [
        "Ġp",
        "ri"
      ],
      [
        "ĠP",
        "o"
      ],
      [
        "nt",
        "o"
      ],
      [
        "Ġlo",
        "ok"
      ],
      [
        "ĠW",
        "ood"
      ],
      [
        "ĠTh",
        "y"
      ],
      [
        "Ġver",
        "t"
      ],
      [
        "Ġpra",
        "ise"
      ],
      [
        "Ġey",
        "es"
      ],
      [
        "lem",
        "n"
      ],
      [
        "S",
        "A"
      ],
      [
        "T",
        "ill"
      ],
      [
        "c",
        "es"
      ],
      [
        "i",
        "ke"
      ],
      [
        "m",
        "e"
      ],
      [
        "n",
        "ot"
      ],
      [
        "v",
        "ing"
      ],
      [
        "Ġ",
        "3"
      ],
      [
        "Ġ",
        "7"
      ],
      [
        "Ġa",
        "w"
      ],
      [
        "Ġs",
        "or"
      ],
      [
        "Ġs",
        "ur"
      ],
      [
        "ou",
        "se"
      ],
      [
        "ou",
        "ch"
      ],
      [
        "Ġf",
        "all"
      ],
      [
        "Ġt",
        "ill"
      ],
      [
        "Ġc",
        "are"
      ],
      [
        "ir",
        "gin"
      ],
      [
        "ri",
        "d"
      ],
      [
        "Ġe",
        "m"
      ],
      [
        "ion",
        "s"
      ],
      [
        "ĠL",
        "ady"
      ],
      [
        "ĠH",
        "er"
      ],
      [
        "ĠM",
        "an"
      ],
      [
        "Ġv",
        "is"
      ],
      [
        "ĠF",
        "or"
      ],
      [
        "Ġne",
        "ed"
      ],
      [
        "Ġcon",
        "s"
      ],
      [
        "ĠĠĠĠĠĠĠĠĠĠĠĠĠĠĠĠĠĠĠĠĠĠĠĠĠĠĠĠ",
        "Ġ"
      ],
      [
        "ĠLord",
        "s"
      ],
      [
        "Ġwor",
        "k"
      ],
      [
        "----------------",
        "----------------"
      ],
      [
        "Ġ16",
        "4"
      ],
      [
        "Ġtru",
        "e"
      ],
      [
        "ilt",
        "on"
      ],
      [
        "ĠPhil",
        "ist"
      ],
      [
        "A",
        "ll"
      ],
      [
        "C",
        "om"
      ],
      [
        "E",
        "S"
      ],
      [
        "S",
        "t"
      ],
      [
        "S",
        "uch"
      ],
      [
        "d",
        "en"
      ],
      [
        "e",
        "v"
      ],
      [
        "i",
        "ence"
      ],
      [
        "Ġ",
        "That"
      ],
      [
        "Ġ",
        "With"
      ],
      [
        "Ġth",
        "us"
      ],
      [
        "Ġw",
        "eak"
      ],
      [
        "re",
        "at"
      ],
      [
        "Ġm",
        "i"
      ],
      [
        "Ġm",
        "ine"
      ],
      [
        "on",
        "t"
      ],
      [
        "Ġd",
        "ra"
      ],
      [
        "Ġd",
        "ear"
      ],
      [
        "Ġc",
        "ame"
      ],
      [
        "Ġc",
        "ause"
      ],
      [
        "ar",
        "y"
      ],
      [
        "ĠS",
        "ong"
      ],
      [
        "el",
        "t"
      ],
      [
        "al",
        "k"
      ],
      [
        "ĠP",
        "ar"
      ],
      [
        "Ġcon",
        "f"
      ],
      [
        "row",
        "s"
      ],
      [
        "op",
        "le"
      ],
      [
        "Ġ16",
        "73"
      ],
      [
        "ak",
        "es"
      ],
      [
        "Ġab",
        "out"
      ],
      [
        "Ġsee",
        "k"
      ],
      [
        "ert",
        "ain"
      ],
      [
        "Ġhand",
        "s"
      ],
      [
        "ap",
        "s"
      ],
      [
        "itt",
        "le"
      ],
      [
        "ĠIs",
        "ra"
      ],
      [
        "H",
[...]
